<unk>	0
<s>	0
</s>	0
foo	0
bar	0
萧炎	-0
..	-1
▁“	-2
也是	-3
便是	-4
了一	-5
。”	-6
...	-7
目光	-8
:“	-9
有些	-10
却是	-11
....	-12
!”	-13
都是	-14
?”	-15
望着	-16
能够	-17
之中	-18
有着	-19
不过	-20
他们	-21
旋即	-22
而出	-23
现在	-24
一道	-25
强者	-26
缓缓	-27
之上	-28
对着	-29
实力	-30
这种	-31
没有	-32
时间	-33
微微	-34
什么	-35
然后	-36
火焰	-37
心中	-38
一些	-39
的话	-40
能量	-41
斗气	-42
起来	-43
最后	-44
...”	-45
身体	-46
若是	-47
一个	-48
这些	-49
▁萧炎	-50
知道	-51
长老	-52
点头	-53
已经	-54
笑道	-55
家伙	-56
大的	-57
药老	-58
灵魂	-59
一般	-60
然是	-61
顿时	-62
体内	-63
▁在	-64
见到	-65
的那	-66
这般	-67
手掌	-68
脸庞	-69
的人	-70
对于	-71
的一	-72
的道	-73
空间	-74
自己	-75
这个	-76
如今	-77
虽然	-78
突然	-79
般的	-80
脸色	-81
这一	-82
之后	-83
让得	-84
声音	-85
来的	-86
令得	-87
恐怕	-88
犹如	-89
望着那	-90
萧炎的	-91
方才	-92
炼药	-93
随着	-94
......	-95
一抹	-96
他的	-97
因为	-98
直接	-99
也不	-100
我们	-101
身形	-102
面前	-103
点了	-104
薰儿	-105
极为	-106
如此	-107
东西	-108
了一口	-109
出现	-110
天空	-111
点了点头	-112
淡淡	-113
而且	-114
声道	-115
在这	-116
手中	-117
等人	-118
上的	-119
一股	-120
力量	-121
不是	-122
那些	-123
修炼	-124
异火	-125
竟然	-126
丹药	-127
医仙	-128
小医仙	-129
之内	-130
再度	-131
似乎	-132
的萧炎	-133
了起来	-134
逐渐	-135
眼中	-136
倒是	-137
略微	-138
闻言	-139
炼药师	-140
恐怖	-141
听得	-142
人的	-143
到了	-144
此刻	-145
了一口气	-146
还是	-147
不会	-148
因此	-149
狠狠	-150
迅速	-151
呵呵	-152
感觉	-153
终于	-154
应该	-155
进入	-156
在那	-157
并未	-158
出现在	-159
几乎	-160
所以	-161
时候	-162
出来	-163
先前	-164
然而	-165
想要	-166
摇头	-167
一笑	-168
变得	-169
其中	-170
下来	-171
不少	-172
是一	-173
。“	-174
忽然	-175
魂殿	-176
以及	-177
不断	-178
片刻	-179
猛然	-180
身影	-181
响起	-182
后者	-183
摇了	-184
老者	-185
了一声	-186
并不	-187
两人	-188
速度	-189
不住	-190
缓缓的	-191
气息	-192
摇了摇头	-193
居然	-194
化为	-195
盯着	-196
周围	-197
只是	-198
你们	-199
云岚	-200
想到	-201
需要	-202
这里	-203
在萧炎	-204
炼制	-205
笑着	-206
势力	-207
面色	-208
终于是	-209
云岚宗	-210
而去	-211
色的	-212
了一眼	-213
所有	-214
可能	-215
的地	-216
紫研	-217
一声	-218
心头	-219
的实力	-220
瞬间	-221
眉头	-222
纳兰	-223
算是	-224
浮现	-225
尊者	-226
美杜	-227
▁闻言	-228
无数	-229
当下	-230
一名	-231
开始	-232
美杜莎	-233
即便是	-234
丝毫	-235
众人	-236
发现	-237
可以	-238
许多	-239
出手	-240
真是	-241
看来	-242
或许	-243
帝国	-244
模样	-245
只能	-246
▁见到	-247
皆是	-248
当年	-249
轻轻	-250
内院	-251
难以	-252
真正	-253
怎么	-254
的目光	-255
一种	-256
这么	-257
一旁	-258
如同	-259
身上	-260
中的	-261
魔兽	-262
的事	-263
▁听得	-264
彻底	-265
忍不住	-266
隐隐	-267
之下	-268
可是	-269
在了	-270
波动	-271
就是	-272
的确	-273
家族	-274
的能量	-275
星斗	-276
在其	-277
清楚	-278
一道道	-279
将会	-280
而下	-281
一阵	-282
落下	-283
狠狠的	-284
了一下	-285
微微一	-286
这等	-287
一次	-288
如何	-289
没想到	-290
药材	-291
淡淡的	-292
将之	-293
不由	-294
笑了	-295
自然是	-296
那么	-297
弥漫	-298
自然	-299
身后	-300
甚至	-301
一下	-302
天地	-303
刚刚	-304
今日	-305
的强者	-306
广场	-307
斗技	-308
陡然	-309
消失	-310
诡异	-311
仅仅	-312
出了	-313
那种	-314
三人	-315
颇为	-316
之外	-317
脸庞上	-318
带着	-319
漆黑	-320
远处	-321
波东	-322
虽说	-323
攻击	-324
海波东	-325
只要	-326
色火焰	-327
不错	-328
不断的	-329
越来	-330
笑了笑	-331
未曾	-332
越来越	-333
片刻后	-334
小的	-335
无奈	-336
身旁	-337
猛的	-338
眼睛	-339
的大	-340
的黑	-341
之力	-342
的望着	-343
笑容	-344
传出	-345
不知道	-346
逐渐的	-347
爆发	-348
之色	-349
暴涌	-350
的声音	-351
嫣然	-352
斗宗	-353
了下来	-354
感受	-355
天际	-356
▁随着	-357
既然	-358
这才	-359
苏千	-360
毕竟	-361
加玛	-362
老人	-363
而开	-364
天空上	-365
尽数	-366
战斗	-367
庞大的	-368
完全	-369
可怕	-370
........	-371
瞧得	-372
青年	-373
在一	-374
而起	-375
并非	-376
巨大的	-377
许些	-378
再次	-379
......”	-380
闪电	-381
不由得	-382
真正的	-383
斗皇	-384
忍不住的	-385
出现在了	-386
男子	-387
注视	-388
萧炎也是	-389
真的	-390
了许多	-391
依旧	-392
宛如	-393
距离	-394
察觉	-395
凝聚	-396
同样	-397
如果	-398
上去	-399
人影	-400
拳头	-401
达到	-402
的盯着	-403
加玛帝国	-404
的灵魂	-405
施展	-406
一眼	-407
▁而	-408
山脉	-409
▁望着	-410
奇异	-411
略微有些	-412
急速	-413
日后	-414
凝重	-415
脚步	-416
之间	-417
任何	-418
小子	-419
韩枫	-420
地面	-421
萧家	-422
之时	-423
直接是	-424
的空间	-425
大陆	-426
纳戒	-427
来说	-428
这位	-429
离开	-430
纳兰嫣然	-431
小心	-432
而来	-433
成功	-434
当然	-435
对着萧炎	-436
学院	-437
而已	-438
成为	-439
拍卖	-440
脸颊	-441
掠过	-442
药鼎	-443
视线	-444
还有	-445
整个	-446
那个	-447
火莲	-448
并且	-449
此时	-450
不能	-451
手指	-452
明白	-453
一动	-454
其他	-455
的斗气	-456
嘴角	-457
太过	-458
对方	-459
光芒	-460
冷笑	-461
一直	-462
并没有	-463
轻声道	-464
层次	-465
声响	-466
那里	-467
是在	-468
佣兵	-469
不然	-470
年轻	-471
明显	-472
重尺	-473
意的	-474
炽热	-475
角域	-476
疯狂	-477
经过	-478
▁望着那	-479
了一些	-480
不得	-481
安静	-482
极其	-483
闪掠	-484
感觉到	-485
有所	-486
不要	-487
天火	-488
少年	-489
将近	-490
黑袍	-491
嘴中	-492
显然	-493
这片	-494
之声	-495
二人	-496
究竟	-497
▁对于	-498
半空	-499
又是	-500
陨落	-501
一点	-502
众多	-503
此次	-504
中州	-505
迟疑	-506
朋友	-507
依然	-508
不可能	-509
妖火	-510
就算是	-511
当初	-512
这是	-513
的时间	-514
神秘	-515
急忙	-516
虚无	-517
闪烁	-518
问道	-519
得到	-520
暴涌而出	-521
重重	-522
老夫	-523
黑角域	-524
巅峰	-525
之人	-526
则是	-527
岩浆	-528
沉吟	-529
浓郁	-530
看见	-531
显得	-532
麻烦	-533
松了一口气	-534
下方	-535
不知	-536
前者	-537
现在的	-538
抬起	-539
魂族	-540
不管	-541
云山	-542
更新	-543
的新	-544
过来	-545
你的	-546
斗尊	-547
所谓	-548
老师	-549
的小	-550
喝声	-551
的血	-552
女子	-553
此处	-554
包裹	-555
过去	-556
进了	-557
感到	-558
暴射	-559
更是	-560
寻常	-561
黑色	-562
嘿嘿	-563
丹塔	-564
相当	-565
扫过	-566
想必	-567
脑袋	-568
转向	-569
冲着	-570
鲜血	-571
扩散	-572
女人	-573
转身	-574
一旁的	-575
了一个	-576
古族	-577
场中	-578
将那	-579
必须	-580
萧厉	-581
这次	-582
就在	-583
阴沉	-584
老家伙	-585
紧紧	-586
遇见	-587
抬头	-588
老鬼	-589
在此刻	-590
这样	-591
消散	-592
眼眸	-593
半点	-594
只有	-595
剧烈	-596
原本	-597
心火	-598
蕴含	-599
一口	-600
功法	-601
到时候	-602
不敢	-603
存在	-604
第一	-605
雅妃	-606
着那	-607
闪电般的	-608
以前	-609
净莲	-610
实在	-611
大长老	-612
一挥	-613
喃喃	-614
发出	-615
无形	-616
生的	-617
果然	-618
拥有着	-619
三千	-620
另外	-621
这一次	-622
大厅	-623
强悍	-624
级别	-625
菩提	-626
那般	-627
无奈的	-628
下去	-629
几乎是	-630
灵魂力量	-631
女王	-632
房间	-633
恐怖的	-634
云韵	-635
缘故	-636
自己的	-637
心炎	-638
最为	-639
强横	-640
手臂	-641
并非是	-642
推荐	-643
举动	-644
左右	-645
绝对	-646
状态	-647
一片	-648
便是能够	-649
不到	-650
碧绿	-651
联盟	-652
同时	-653
已是	-654
望向	-655
这东西	-656
稳定	-657
即便	-658
难道	-659
好看	-660
闪过	-661
即使	-662
的感觉	-663
这家伙	-664
古河	-665
了几	-666
足以	-667
天妖	-668
护法	-669
少女	-670
提升	-671
伴随着	-672
满脸	-673
至于	-674
变化	-675
温度	-676
持续	-677
萧炎等人	-678
了出来	-679
看上去	-680
收藏	-681
不仅	-682
起身	-683
骤然	-684
无法	-685
的地方	-686
脚掌	-687
在这里	-688
裂缝	-689
陨落心炎	-690
的朋友	-691
之前	-692
萧炎那	-693
半晌	-694
喝道	-695
充斥	-696
隐隐间	-697
吞噬	-698
弟子	-699
为了	-700
紧握	-701
使用	-702
至少	-703
那位	-704
斗王	-705
远古	-706
微微一笑	-707
先生	-708
多少	-709
笑声	-710
心神	-711
加列	-712
即将	-713
多年	-714
突破	-715
眼瞳	-716
融合	-717
便是会	-718
石台	-719
所说	-720
的火	-721
过头	-722
沉声道	-723
还不错	-724
之处	-725
的青	-726
停留	-727
卷轴	-728
而来的	-729
净莲妖火	-730
一本	-731
拥有	-732
深处	-733
不远处	-734
淡淡的道	-735
南学院	-736
的东西	-737
欢迎	-738
只得	-739
风雷	-740
一怔	-741
十几	-742
眸子	-743
质量	-744
准备	-745
感应	-746
响彻	-747
气势	-748
略有些	-749
看一下	-750
一枚	-751
等级	-752
面前的	-753
的望着那	-754
如今的	-755
将其	-756
徐徐	-757
背后	-758
的那些	-759
微微点头	-760
去了	-761
情况	-762
推荐一本	-763
两道	-764
悄然	-765
睁开	-766
订阅	-767
长的	-768
地的	-769
涌上	-770
美杜莎女王	-771
》,	-772
颤抖	-773
的朋友可以	-774
双眼	-775
炎谷	-776
▁推荐一本	-777
斗圣	-778
出来的	-779
稳定更新	-780
书荒	-781
狗神	-782
的新作	-783
闹书荒	-784
收藏订阅	-785
好看的新作	-786
质量还不错	-787
欢迎收藏订阅	-788
的朋友可以看一下	-789
▁推荐一本好看的新作	-790
闹书荒的朋友可以看一下	-791
不了	-792
还能	-793
迦南学院	-794
▁这	-795
而是	-796
所有人	-797
接触	-798
位置	-799
气的	-800
炼化	-801
除了	-802
但却	-803
星陨	-804
让人	-805
▁一	-806
暴掠	-807
液体	-808
猛的一	-809
念头	-810
分钟	-811
冰冷	-812
强行	-813
悬浮	-814
顺着	-815
涌现	-816
那一	-817
手印	-818
竟然是	-819
露出	-820
星陨阁	-821
一人	-822
柳擎	-823
继续	-824
他们的	-825
在一起	-826
一丝	-827
两个	-828
段时间	-829
动着	-830
斗宗强者	-831
他也	-832
劲风	-833
那股	-834
之中的	-835
机会	-836
面对着	-837
立刻	-838
面的	-839
控制	-840
斗师	-841
▁在萧炎	-842
天帝	-843
放心	-844
远远	-845
”,	-846
俏脸	-847
察觉到	-848
玉瓶	-849
给我	-850
阶别	-851
苍白	-852
虚空	-853
袖袍	-854
连忙	-855
所谓的	-856
平静	-857
动手	-858
出去	-859
黑影	-860
有些不	-861
细微	-862
资格	-863
天赋	-864
彩鳞	-865
消息	-866
身份	-867
风暴	-868
抬起头	-869
不定	-870
......,	-871
关系	-872
女孩	-873
庞大	-874
若非	-875
苦笑	-876
双手	-877
无疑	-878
低沉	-879
根本	-880
起了	-881
正在	-882
两名	-883
动的	-884
萧玉	-885
说话	-886
按照	-887
浑身	-888
雄浑	-889
天火尊者	-890
魂天帝	-891
萧玄	-892
这话	-893
宗主	-894
曾经	-895
必然	-896
成了	-897
更加	-898
异常	-899
法犸	-900
对手	-901
就算	-902
小家伙	-903
掠过一抹	-904
开来	-905
的将	-906
苍老	-907
令人	-908
只见	-909
惊骇	-910
不见	-911
吴昊	-912
寻找	-913
注视下	-914
笑着点了点头	-915
全部	-916
实在是	-917
劲气	-918
通道	-919
正是	-920
不然的话	-921
巨大	-922
那名	-923
萧炎目光	-924
我的	-925
也就	-926
蔓延	-927
依然是	-928
低声	-929
刚欲	-930
失败	-931
扭曲	-932
的那一	-933
重重的	-934
血脉	-935
感受到	-936
地方	-937
杀意	-938
沉默	-939
问题	-940
让得他	-941
充斥着	-942
今天	-943
隐藏	-944
品炼药师	-945
开口	-946
有种	-947
丝毫的	-948
风尊者	-949
吐了一口气	-950
天盖	-951
了萧炎	-952
一条	-953
三年	-954
那道	-955
浮现一抹	-956
有人	-957
见状	-958
轻叹	-959
七彩	-960
手段	-961
程度	-962
的速度	-963
铺天盖	-964
古元	-965
笼罩	-966
一脸	-967
凌厉	-968
让得萧炎	-969
事情	-970
几个	-971
死死	-972
短短	-973
而出的	-974
一位	-975
不可	-976
被萧炎	-977
似是	-978
经脉	-979
而进	-980
的力量	-981
大殿	-982
还有着	-983
行去	-984
表面	-985
。“”	-986
瞥了一眼	-987
了吧	-988
爆炸	-989
微微点了点头	-990
青鳞	-991
体内斗气	-992
对视	-993
殿主	-994
眼神	-995
解决	-996
喃喃道	-997
的缘故	-998
城市	-999
威力	-1000
效果	-1001
布满	-1002
狂暴	-1003
在心中	-1004
封印	-1005
此话	-1006
狰狞	-1007
毫无	-1008
的丹药	-1009
轻轻的	-1010
学员	-1011
落在	-1012
了啊	-1013
有了	-1014
黄泉	-1015
天尊	-1016
摘星	-1017
轻易	-1018
森林	-1019
毁灭	-1020
消耗	-1021
还真是	-1022
熟悉	-1023
无数道	-1024
的确是	-1025
的身体	-1026
具备	-1027
这些年	-1028
容易	-1029
以为	-1030
几人	-1031
希望	-1032
萧炎却是	-1033
带起	-1034
萧鼎	-1035
重要	-1036
在这种	-1037
摘星老鬼	-1038
一张	-1039
山洞	-1040
了过去	-1041
这一幕	-1042
办法	-1043
爆裂	-1044
周身	-1045
哥哥	-1046
萧战	-1047
突然间	-1048
来了	-1049
玉手	-1050
多的	-1051
导师	-1052
打算	-1053
留下	-1054
其体内	-1055
阴冷	-1056
只不过	-1057
还不	-1058
的对着	-1059
一处	-1060
的方	-1061
▁不过	-1062
之上的	-1063
山峰	-1064
震惊	-1065
但是	-1066
属性	-1067
缭绕	-1068
蛇人	-1069
萧炎心中	-1070
佣兵团	-1071
不少人	-1072
居然是	-1073
兄弟	-1074
理会	-1075
队伍	-1076
额头	-1077
着萧炎	-1078
有着一些	-1079
冰河	-1080
名字	-1081
待得	-1082
磅礴	-1083
暴涨	-1084
▁目光	-1085
吞天	-1086
顺利	-1087
令得他	-1088
斗皇强者	-1089
不用	-1090
银色	-1091
炎火	-1092
由于	-1093
林修	-1094
一头	-1095
席卷	-1096
比起	-1097
方才能够	-1098
低声道	-1099
回去	-1100
她的	-1101
美眸	-1102
诡异的	-1103
一步	-1104
林修崖	-1105
旋转	-1106
青色	-1107
三千焱	-1108
剧烈的	-1109
品丹药	-1110
手中的	-1111
不成	-1112
微皱	-1113
气氛	-1114
天妖凰	-1115
持续了	-1116
而随着	-1117
散发	-1118
两位	-1119
叹息	-1120
所在	-1121
担心	-1122
疑惑	-1123
可却	-1124
青莲	-1125
."	-1126
之事	-1127
在他	-1128
然的	-1129
的火焰	-1130
不小的	-1131
原来	-1132
涌出	-1133
相比	-1134
越加	-1135
也是在	-1136
之物	-1137
新生	-1138
说过	-1139
脸庞上的	-1140
定然	-1141
还真	-1142
手掌一	-1143
的气息	-1144
的脸庞	-1145
二十	-1146
傀儡	-1147
三千焱炎火	-1148
升腾	-1149
反而	-1150
小时	-1151
尽头	-1152
的一些	-1153
两年	-1154
入了	-1155
磐门	-1156
同样是	-1157
的时候	-1158
忌惮	-1159
空气	-1160
身着	-1161
萧炎哥哥	-1162
白山	-1163
此刻的	-1164
一变	-1165
药族	-1166
快速	-1167
彻底的	-1168
斗帝	-1169
父亲	-1170
九幽	-1171
站在	-1172
霎那	-1173
极为的	-1174
▁然而	-1175
疯狂的	-1176
以后	-1177
扫了	-1178
这么多年	-1179
是何	-1180
曹颖	-1181
特尔	-1182
吞天蟒	-1183
应该是	-1184
保持	-1185
大多	-1186
模糊	-1187
便是被	-1188
不及	-1189
林焱	-1190
微笑道	-1191
有什么	-1192
化为一道	-1193
凝固	-1194
力的	-1195
深吸	-1196
阻拦	-1197
可不是	-1198
米特尔	-1199
此人	-1200
联手	-1201
那便	-1202
加上	-1203
................	-1204
前方	-1205
▁心中	-1206
的事情	-1207
一闪	-1208
汇聚	-1209
皱眉	-1210
的模样	-1211
后退	-1212
地步	-1213
我也	-1214
第二	-1215
与萧炎	-1216
屈指	-1217
狼狈	-1218
诧异	-1219
还要	-1220
身形一动	-1221
不再	-1222
借助	-1223
危险	-1224
寂静	-1225
掌心	-1226
斗灵	-1227
而那	-1228
看了一眼	-1229
族长	-1230
的一声	-1231
第一次	-1232
困难	-1233
天墓	-1234
妖傀	-1235
悄悄	-1236
我会	-1237
有点	-1238
白色	-1239
了一会	-1240
双翼	-1241
惊愕	-1242
肩膀	-1243
防御	-1244
下了	-1245
能力	-1246
冷笑道	-1247
站起身	-1248
青色火焰	-1249
一缕	-1250
属于	-1251
风雷阁	-1252
而过	-1253
凶悍	-1254
叶家	-1255
泛着	-1256
的在	-1257
不久	-1258
眨眼	-1259
世界	-1260
暴射而出	-1261
!!	-1262
一旦	-1263
取出	-1264
吸收	-1265
了不少	-1266
将目光	-1267
仿佛	-1268
小姐	-1269
气旋	-1270
翼翼	-1271
只见得	-1272
高级	-1273
小心翼翼	-1274
威压	-1275
缓步	-1276
轻声	-1277
一愣	-1278
你这	-1279
古龙	-1280
咬着	-1281
炼丹	-1282
三位	-1283
很多	-1284
选择	-1285
身体之上	-1286
不弱	-1287
而其	-1288
偏头	-1289
涟漪	-1290
为何	-1291
将这	-1292
泛起	-1293
星斗圣	-1294
爆发出	-1295
的人影	-1296
天妖凰族	-1297
中年	-1298
大战	-1299
本事	-1300
便是在	-1301
即使是	-1302
达到了	-1303
斗气大陆	-1304
处于	-1305
上了	-1306
挥手	-1307
看看	-1308
出现了	-1309
萧炎与	-1310
碧绿火焰	-1311
传来	-1312
见过	-1313
果然是	-1314
偶尔	-1315
炎盟	-1316
依旧是	-1317
扫了扫	-1318
无奈的摇了摇头	-1319
一把	-1320
喉咙	-1321
没什么	-1322
三大	-1323
半圣	-1324
是因为	-1325
萧炎也	-1326
了他	-1327
形成	-1328
微眯	-1329
透着	-1330
造成	-1331
萧炎心头	-1332
中心	-1333
话语	-1334
半晌后	-1335
所需要	-1336
云棱	-1337
很是	-1338
这道	-1339
下的	-1340
交手	-1341
黑雾	-1342
之一	-1343
抗衡	-1344
金色	-1345
间的	-1346
可怕的	-1347
森然	-1348
纳戒中	-1349
迟疑了一下	-1350
铺天盖地的	-1351
不愧	-1352
之感	-1353
各自	-1354
咬牙	-1355
两种	-1356
厄难	-1357
率先	-1358
而在	-1359
说不定	-1360
本来	-1361
随意	-1362
也是有些	-1363
▁当	-1364
依靠	-1365
兴趣	-1366
冲击	-1367
它们	-1368
恢复	-1369
飞快	-1370
这个家伙	-1371
你是	-1372
相信	-1373
难怪	-1374
震撼	-1375
魂殿殿主	-1376
会被	-1377
赶忙	-1378
足有	-1379
安静的	-1380
半个	-1381
古帝	-1382
投向	-1383
白程	-1384
约莫	-1385
回来	-1386
行人	-1387
飞行	-1388
凭借	-1389
紧闭	-1390
表情	-1391
飞掠	-1392
将萧炎	-1393
▁”	-1394
唐震	-1395
第三	-1396
生生的	-1397
的恐怖	-1398
的炼药师	-1399
压制	-1400
台上	-1401
或者	-1402
的老者	-1403
不小	-1404
叶重	-1405
唯有	-1406
尖锐	-1407
浩瀚	-1408
的药	-1409
金光	-1410
的势力	-1411
蕴含着	-1412
随意的	-1413
与那	-1414
两者	-1415
四人	-1416
来到	-1417
厄难毒	-1418
大斗师	-1419
年龄	-1420
话音	-1421
不愧是	-1422
的话语	-1423
脸色也是	-1424
▁见到萧炎	-1425
对视了一眼	-1426
不上	-1427
不同	-1428
情绪	-1429
难看	-1430
迅速的	-1431
缓缓的道	-1432
一团	-1433
大家	-1434
拍了	-1435
给予	-1436
翻腾	-1437
背影	-1438
却并未	-1439
玄重尺	-1440
丹会	-1441
土豆	-1442
无人	-1443
让我	-1444
破风	-1445
进去	-1446
的手掌	-1447
差距	-1448
奇异的	-1449
斗尊强者	-1450
以往	-1451
击杀	-1452
哈哈	-1453
气塔	-1454
痕迹	-1455
清儿	-1456
星斗尊	-1457
成形	-1458
冰河谷	-1459
所蕴含	-1460
别人	-1461
天蛇	-1462
走吧	-1463
退后	-1464
性子	-1465
天焚	-1466
意料	-1467
收回	-1468
他也是	-1469
感受着	-1470
完美	-1471
等待	-1472
的家伙	-1473
仅仅只是	-1474
天空上的	-1475
天空之上	-1476
暗中	-1477
让你	-1478
雷霆	-1479
细微的	-1480
这些人	-1481
站起身来	-1482
萧炎眉头	-1483
冥宗	-1484
几分	-1485
动静	-1486
回复	-1487
坐在	-1488
好了	-1489
极度	-1490
颜色	-1491
偏过头	-1492
对着那	-1493
坚持	-1494
头顶	-1495
导致	-1496
萧族	-1497
光柱	-1498
的身影	-1499
那家伙	-1500
运转	-1501
心中的	-1502
的修炼	-1503
丈庞大的	-1504
大门	-1505
我想	-1506
这股	-1507
拍了拍	-1508
些许	-1509
倒也	-1510
吸引	-1511
放在	-1512
红的	-1513
之气	-1514
也不会	-1515
太大的	-1516
攻势	-1517
看着	-1518
萧门	-1519
其他的	-1520
地妖傀	-1521
就犹如	-1522
黑袍人	-1523
到得	-1524
感知	-1525
震得	-1526
的脸色	-1527
呼吸	-1528
龙王	-1529
▁瞧得	-1530
斗破	-1531
白发	-1532
紫色	-1533
还好	-1534
炼气塔	-1535
丹雷	-1536
作用	-1537
族人	-1538
特别	-1539
便是将	-1540
失去了	-1541
不出	-1542
双方	-1543
欣蓝	-1544
龙岛	-1545
时间的	-1546
的药材	-1547
味道	-1548
丝毫不	-1549
就在萧炎	-1550
慕骨	-1551
的他	-1552
轰然	-1553
半空中	-1554
的地步	-1555
▁伴随着	-1556
也是有着	-1557
闪过一抹	-1558
巨石	-1559
撞击	-1560
玄空	-1561
皱了	-1562
胸口	-1563
重伤	-1564
天焚炼气塔	-1565
一切	-1566
外的	-1567
足足	-1568
▁当然	-1569
却是突然	-1570
你也	-1571
到达	-1572
接近	-1573
材料	-1574
受到	-1575
平淡	-1576
总是	-1577
还未	-1578
那张	-1579
也只能	-1580
惊讶	-1581
拱手	-1582
地心火	-1583
焚炎谷	-1584
红色	-1585
再加上	-1586
的青年	-1587
,“	-1588
可不	-1589
吸力	-1590
源源	-1591
虚幻	-1592
玄空子	-1593
互相	-1594
山谷	-1595
最好	-1596
注意	-1597
清脆	-1598
特殊	-1599
血色	-1600
一时间	-1601
究竟是	-1602
一族	-1603
双眸	-1604
琥嘉	-1605
也是被	-1606
了过来	-1607
射而出	-1608
了去	-1609
公会	-1610
压抑	-1611
看似	-1612
体内的	-1613
一只	-1614
之意	-1615
寒气	-1616
惊叹	-1617
璀璨	-1618
范痨	-1619
长剑	-1620
阴寒	-1621
从中	-1622
微笑	-1623
渗透	-1624
紫晶	-1625
雾气	-1626
一般的	-1627
周围的	-1628
三种	-1629
作为	-1630
提醒	-1631
越发	-1632
飞速	-1633
了么	-1634
近乎	-1635
了将近	-1636
苦笑道	-1637
奥托	-1638
好处	-1639
抓住	-1640
发生	-1641
吞炎	-1642
大会	-1643
如其	-1644
紫火	-1645
的攻击	-1646
令得萧炎	-1647
笑着摇了摇头	-1648
一定	-1649
也会	-1650
回过	-1651
衣衫	-1652
身子	-1653
锁链	-1654
咆哮	-1655
岩枭	-1656
意思	-1657
挥了	-1658
焚决	-1659
药尘	-1660
眼中也是	-1661
森白	-1662
许久	-1663
身为	-1664
然后便是	-1665
叹了一口气	-1666
刚好	-1667
压迫	-1668
阴森	-1669
道身影	-1670
魔炎谷	-1671
’’	-1672
对付	-1673
撕裂	-1674
翎泉	-1675
长枪	-1676
天火三	-1677
冷漠	-1678
古树	-1679
放弃	-1680
本源	-1681
淡漠	-1682
老先生	-1683
变故	-1684
灵丹	-1685
略显	-1686
简直	-1687
胸膛	-1688
若琳	-1689
错愕	-1690
已经是	-1691
纳兰桀	-1692
没有半点	-1693
虚无吞炎	-1694
一对	-1695
一年	-1696
三个	-1697
光团	-1698
其后	-1699
掩饰	-1700
死的	-1701
沙漠	-1702
没事	-1703
血液	-1704
让他	-1705
天火三玄	-1706
可惜	-1707
戒指	-1708
皮肤	-1709
了一点	-1710
他便是	-1711
一弹	-1712
云芝	-1713
天府	-1714
愕然	-1715
而上	-1716
拍卖场	-1717
的点了点头	-1718
到手	-1719
普通	-1720
面上	-1721
的那种	-1722
▁听	-1723
喜欢	-1724
收敛	-1725
而这	-1726
之间的	-1727
天火三玄变	-1728
从那	-1729
伤势	-1730
其余	-1731
强的	-1732
挣扎	-1733
看了	-1734
笑眯	-1735
古怪	-1736
坦城	-1737
转移	-1738
阵阵	-1739
了下去	-1740
衣老者	-1741
既然如此	-1742
▁第	-1743
想象	-1744
无比	-1745
来看	-1746
涌动	-1747
目瞪	-1748
范围	-1749
色的火焰	-1750
其上	-1751
区域	-1752
四处	-1753
高温	-1754
微微一变	-1755
也是越来越	-1756
寒意	-1757
乌坦城	-1758
笑眯眯	-1759
口呆	-1760
平日	-1761
惊天	-1762
认为	-1763
是一种	-1764
目光中	-1765
突如其	-1766
扩散而出	-1767
的目光中	-1768
变成	-1769
毫不	-1770
转头	-1771
一行人	-1772
之内的	-1773
天地间	-1774
无疑是	-1775
最后的	-1776
脸颊上	-1777
从纳戒中	-1778
上前	-1779
妖瞑	-1780
局面	-1781
神来	-1782
魔核	-1783
他能够	-1784
目光在	-1785
落而下	-1786
斗王强者	-1787
目光转向	-1788
若琳导师	-1789
取得	-1790
多谢	-1791
对他	-1792
紧皱	-1793
黑皇	-1794
说什么	-1795
死死的盯着	-1796
从未	-1797
光是	-1798
几十	-1799
天行	-1800
足够	-1801
部分	-1802
都是在	-1803
在场	-1804
是否	-1805
都会	-1806
借助着	-1807
地面上	-1808
目瞪口呆	-1809
也是逐渐的	-1810
全力	-1811
条件	-1812
超过	-1813
凤清儿	-1814
都是被	-1815
上次	-1816
不多	-1817
便走	-1818
此事	-1819
觉得	-1820
这段时间	-1821
大师	-1822
接着	-1823
结果	-1824
天时间	-1825
漆黑的	-1826
猛然一	-1827
紧紧的	-1828
萧炎在	-1829
萧炎所	-1830
源源不断的	-1831
一辈	-1832
唯一	-1833
门口	-1834
变幻	-1835
灰袍	-1836
简单	-1837
大小的	-1838
的灵魂力量	-1839
僵硬	-1840
▁在那	-1841
接下来	-1842
厄难毒体	-1843
慕骨老人	-1844
全身	-1845
娇躯	-1846
残影	-1847
赫然	-1848
一股股	-1849
莫天行	-1850
起一抹	-1851
挥了挥手	-1852
小心翼翼的	-1853
▁那	-1854
之地	-1855
会是	-1856
低低	-1857
抱着	-1858
能否	-1859
陀舍	-1860
非常	-1861
大哥	-1862
混乱	-1863
笑意	-1864
肯定	-1865
在这片	-1866
最后一	-1867
菩提古树	-1868
见到萧炎	-1869
下场	-1870
四周	-1871
的心	-1872
也是一	-1873
悬浮在	-1874
身旁的	-1875
▁面对着	-1876
怎么可能	-1877
完成	-1878
异样	-1879
走出	-1880
身前	-1881
▁见状	-1882
苦笑了一声	-1883
了那	-1884
后面	-1885
好奇	-1886
想起	-1887
早就	-1888
给你	-1889
韩雪	-1890
山老人	-1891
握着	-1892
收入	-1893
药老的	-1894
的那一霎	-1895
宽敞	-1896
脑海	-1897
出现的	-1898
目光的	-1899
身体上	-1900
鹜护法	-1901
陀舍古帝	-1902
上空	-1903
冷汗	-1904
怕是	-1905
接过	-1906
晋入	-1907
深的	-1908
诸位	-1909
▁就在	-1910
轻笑道	-1911
阶斗技	-1912
▁(	-1913
从其	-1914
冥蟒	-1915
完毕	-1916
杂着	-1917
突兀	-1918
表现	-1919
九幽地	-1920
异火的	-1921
当真是	-1922
破坏	-1923
九幽地冥蟒	-1924
以他	-1925
惊喜	-1926
意外	-1927
时刻	-1928
的是	-1929
的老	-1930
身躯	-1931
下来的	-1932
炽热的	-1933
的黑袍	-1934
这些家伙	-1935
也是在此刻	-1936
各种	-1937
处的	-1938
火能	-1939
有着一	-1940
的魔兽	-1941
也是能够	-1942
突如其来的	-1943
吼声	-1944
它的	-1945
强大	-1946
彼此	-1947
提炼	-1948
而成	-1949
转过	-1950
陷入	-1951
亲自	-1952
天的	-1953
抵御	-1954
狂风	-1955
结束	-1956
药方	-1957
是一名	-1958
没有丝毫	-1959
▁被	-1960
其实	-1961
愤怒	-1962
柳翎	-1963
遮掩	-1964
这一刻	-1965
没有丝毫的	-1966
☆☆	-1967
客气	-1968
怎样	-1969
而立	-1970
里面	-1971
▁虽然	-1972
低沉的	-1973
保持着	-1974
笑着道	-1975
真要	-1976
精纯	-1977
传来的	-1978
炼药术	-1979
着眉头	-1980
刚刚落下	-1981
青莲地心火	-1982
十来	-1983
惊异	-1984
已经被	-1985
飞快的	-1986
回过神来	-1987
弧度	-1988
月票	-1989
经历	-1990
脚尖	-1991
还会	-1992
了片刻	-1993
便是出现在了	-1994
与他	-1995
句话	-1996
叫声	-1997
碰撞	-1998
考核	-1999
雪白	-2000
斗之气	-2001
菩提化	-2002
低头	-2003
几位	-2004
出声	-2005
打败	-2006
无数人	-2007
的战斗	-2008
也是缓缓	-2009
加刑	-2010
柔和	-2011
韩家	-2012
令得人	-2013
布满着	-2014
紧紧的盯着	-2015
深吸了一口气	-2016
上面	-2017
也能	-2018
美丽	-2019
闪现	-2020
一个人	-2021
小女孩	-2022
的举动	-2023
萧炎便是	-2024
噙着	-2025
激动	-2026
看这	-2027
都不	-2028
斗气的	-2029
一起	-2030
召唤	-2031
数量	-2032
纤手	-2033
规矩	-2034
黑暗	-2035
加刑天	-2036
火焰的	-2037
转过头	-2038
萧炎能够	-2039
古老	-2040
嘴唇	-2041
恐惧	-2042
掌控	-2043
无声	-2044
本身	-2045
不得不	-2046
每一次	-2047
屈指一弹	-2048
坚硬	-2049
的面	-2050
绿色	-2051
闭目	-2052
也算是	-2053
在其中	-2054
年轻人	-2055
悄悄的	-2056
消失在	-2057
萧炎手掌	-2058
中央	-2059
开去	-2060
浓郁的	-2061
这一点	-2062
萧炎体内	-2063
太虚	-2064
看得	-2065
释放	-2066
也并不	-2067
否则	-2068
呆滞	-2069
向萧炎	-2070
拍卖会	-2071
天府联盟	-2072
太虚古龙	-2073
三名	-2074
可见	-2075
嘴巴	-2076
小脸	-2077
微变	-2078
护卫	-2079
虫洞	-2080
进化	-2081
仅仅是	-2082
星斗宗	-2083
涌上一抹	-2084
充满	-2085
反应	-2086
外界	-2087
失望	-2088
尴尬	-2089
极端	-2090
狂喜	-2091
生生	-2092
细的	-2093
骨翼	-2094
也不敢	-2095
的少年	-2096
淡淡一笑	-2097
停止	-2098
好几	-2099
指尖	-2100
操控	-2101
森冷	-2102
谨慎	-2103
两人的	-2104
也就是	-2105
徐徐的	-2106
▁将	-2107
族中	-2108
置信	-2109
在了一	-2110
菩提化体	-2111
萧炎这才	-2112
这种时候	-2113
不起	-2114
出的	-2115
实的	-2116
支持	-2117
本体	-2118
目的	-2119
追杀	-2120
感应到	-2121
掌心中	-2122
的长老	-2123
也是令得	-2124
应该便是	-2125
会有	-2126
始终	-2127
实质	-2128
少爷	-2129
毒宗	-2130
答应	-2131
莫名	-2132
的黑色	-2133
能够在	-2134
什么东西	-2135
抬起头来	-2136
时的	-2137
试试	-2138
这番	-2139
三千雷	-2140
为什么	-2141
强者的	-2142
上一	-2143
大地	-2144
对面	-2145
强榜	-2146
径直	-2147
遥遥	-2148
凝聚成	-2149
加列毕	-2150
广场上	-2151
细小的	-2152
便是直接	-2153
笑了一声	-2154
菩提化体涎	-2155
一落	-2156
一颤	-2157
不太	-2158
她们	-2159
当日	-2160
赤红	-2161
鬼魅	-2162
黛眉	-2163
▁手掌	-2164
在内院	-2165
与之	-2166
了个	-2167
内部	-2168
噗嗤	-2169
帮助	-2170
我来	-2171
抽搐	-2172
日光	-2173
现身	-2174
自动	-2175
那被	-2176
吟吟	-2177
外面	-2178
徽章	-2179
相同	-2180
眼角	-2181
闭关	-2182
也不是	-2183
清楚的	-2184
浮现而出	-2185
人群	-2186
告诉	-2187
多久	-2188
收拾	-2189
粉末	-2190
那对	-2191
韩月	-2192
▁药老	-2193
开始了	-2194
皱了皱	-2195
这老家伙	-2196
都是有些	-2197
传说	-2198
名头	-2199
后来	-2200
料到	-2201
混蛋	-2202
的天	-2203
经验	-2204
似乎是	-2205
年时间	-2206
没有了	-2207
注视着	-2208
旋即一道	-2209
底的	-2210
开启	-2211
房门	-2212
方向	-2213
疗伤	-2214
的主	-2215
骇然	-2216
天妖傀	-2217
加列家族	-2218
那所谓的	-2219
一路	-2220
撇嘴	-2221
灌注	-2222
罗布	-2223
紧接着	-2224
让得人	-2225
弥漫而出	-2226
一样	-2227
不想	-2228
他是	-2229
复杂	-2230
离去	-2231
街道	-2232
不过好	-2233
的消息	-2234
能够将	-2235
这小子	-2236
▁天空上	-2237
响彻而起	-2238
就得	-2239
尸体	-2240
很难	-2241
排名	-2242
斗者	-2243
蠕动	-2244
魔老鬼	-2245
自然也是	-2246
米特尔家族	-2247
。。	-2248
冠军	-2249
名声	-2250
坐于	-2251
才能	-2252
盘旋	-2253
穿梭	-2254
立在	-2255
老祖	-2256
血红	-2257
身来	-2258
这事	-2259
阳光	-2260
了一种	-2261
一口鲜血	-2262
后方	-2263
回荡	-2264
废话	-2265
死亡	-2266
的巨	-2267
种族	-2268
被人	-2269
锋利	-2270
就如同	-2271
的异火	-2272
瞬间便是	-2273
交易	-2274
使得	-2275
几道	-2276
参加	-2277
名为	-2278
呼啸	-2279
嗤嗤	-2280
怒火	-2281
比试	-2282
琉璃	-2283
精神	-2284
诱惑	-2285
中年人	-2286
显然是	-2287
刺眼	-2288
周遭	-2289
声势	-2290
大阵	-2291
等等	-2292
谁都	-2293
路线	-2294
长长的	-2295
▁听得萧炎	-2296
休息	-2297
叫做	-2298
暴怒	-2299
火热	-2300
目标	-2301
▁第一	-2302
夹杂着	-2303
狠狠一	-2304
这么多	-2305
赫然便是	-2306
你能	-2307
天啸	-2308
姚盛	-2309
威胁	-2310
正好	-2311
沈云	-2312
红唇	-2313
花宗	-2314
麻麻	-2315
以一种	-2316
蛇人族	-2317
都将会	-2318
雷尊者	-2319
双掌	-2320
太多	-2321
紧绷	-2322
他知道	-2323
密麻麻	-2324
身后的	-2325
从纳戒中取出	-2326
凄厉	-2327
巴掌	-2328
废物	-2329
把握	-2330
武器	-2331
清晰	-2332
黑衣	-2333
密密麻麻	-2334
暴掠而去	-2335
▁萧炎目光	-2336
与此	-2337
了解	-2338
信心	-2339
冰寒	-2340
凭空	-2341
抵达	-2342
男人	-2343
类似	-2344
自语	-2345
诸多	-2346
轰隆	-2347
这场	-2348
不过这	-2349
了一道	-2350
笑吟吟	-2351
兴奋	-2352
前辈	-2353
走进	-2354
赶紧	-2355
他却是	-2356
其身体	-2357
散发着	-2358
一身	-2359
七品	-2360
冷哼	-2361
哪里	-2362
情报	-2363
望去	-2364
眉心	-2365
跟着	-2366
大厅中	-2367
的存在	-2368
都是能够	-2369
但这	-2370
光泽	-2371
决定	-2372
听见	-2373
基本	-2374
据说	-2375
盘腿	-2376
萧宁	-2377
这边	-2378
雷鸣	-2379
骨灵	-2380
并不是	-2381
闪掠而出	-2382
三十	-2383
不好	-2384
减弱	-2385
大人	-2386
将他	-2387
才是	-2388
暴退	-2389
杀了	-2390
欣喜	-2391
称为	-2392
等着	-2393
覆盖	-2394
轻松	-2395
还没	-2396
音波	-2397
了上去	-2398
的斗技	-2399
斗圣强者	-2400
一扫	-2401
内的	-2402
加快	-2403
动身	-2404
成就	-2405
有过	-2406
修炼室	-2407
听说过	-2408
那便是	-2409
面色也是	-2410
但那	-2411
冷火	-2412
勉强	-2413
怀中	-2414
拼命	-2415
无尽	-2416
略作	-2417
白衣	-2418
神色	-2419
耳边	-2420
通体	-2421
一口气	-2422
在他们	-2423
这便是	-2424
这里的	-2425
与此同时	-2426
魔兽山脉	-2427
了萧炎一眼	-2428
与其	-2429
人类	-2430
公主	-2431
嚣张	-2432
大汉	-2433
妖圣	-2434
帮忙	-2435
正常	-2436
流淌	-2437
进行	-2438
重的	-2439
了出去	-2440
的笑道	-2441
若非是	-2442
望着萧炎	-2443
了两	-2444
保护	-2445
影子	-2446
得罪	-2447
让的	-2448
最后在	-2449
目光的注视下	-2450
对你	-2451
干枯	-2452
心的	-2453
打破	-2454
相助	-2455
纠缠	-2456
视着	-2457
认识	-2458
面相	-2459
以他的	-2460
先前那	-2461
真的是	-2462
地魔老鬼	-2463
一皱	-2464
之法	-2465
了点	-2466
何种	-2467
冰凉	-2468
出乎	-2469
刚才	-2470
拒绝	-2471
比赛	-2472
灰烬	-2473
秘法	-2474
行走	-2475
魂崖	-2476
明显是	-2477
的脸庞上	-2478
等人也是	-2479
鹰山老人	-2480
为之	-2481
二老	-2482
价格	-2483
很少	-2484
我所	-2485
最近	-2486
猜测	-2487
玄阶	-2488
皇室	-2489
其他人	-2490
的一处	-2491
越发的	-2492
都是会	-2493
天空上那	-2494
萧炎身体	-2495
九幽地冥蟒族	-2496
慕兰	-2497
挑战	-2498
了什么	-2499
是何等	-2500
破风声	-2501
吸了一口	-2502
都是未曾	-2503
骨灵冷火	-2504
他在	-2505
伸出	-2506
抱拳	-2507
损失	-2508
看去	-2509
移动	-2510
对于这	-2511
没有什么	-2512
光圈	-2513
几名	-2514
好的	-2515
小伊	-2516
费天	-2517
闪动	-2518
骨骸	-2519
的层次	-2520
所蕴含的	-2521
凶兽	-2522
努力	-2523
容貌	-2524
看出	-2525
种种	-2526
老头	-2527
而坐	-2528
蓝色	-2529
那等	-2530
▁这种	-2531
九天尊	-2532
比不上	-2533
沉吟道	-2534
对其	-2535
恭敬	-2536
摊了	-2537
若现	-2538
被他	-2539
说了	-2540
领头	-2541
魂玉	-2542
先前的	-2543
对萧炎	-2544
铁护法	-2545
有着不少	-2546
若是能够	-2547
一番	-2548
伤害	-2549
各位	-2550
啧啧	-2551
地心	-2552
引起	-2553
摊手	-2554
柳眉	-2555
洪辰	-2556
消炎	-2557
若隐	-2558
萧晨	-2559
通过	-2560
铁青	-2561
天地能量	-2562
手掌一挥	-2563
眉头微皱	-2564
轻叹了一口气	-2565
太大	-2566
石碑	-2567
跟上	-2568
躲避	-2569
的男子	-2570
的霎那	-2571
自其体内	-2572
若隐若现	-2573
萧炎笑了笑	-2574
动作	-2575
古妖	-2576
快步	-2577
拱了	-2578
流光	-2579
烛离	-2580
红润	-2581
豁然	-2582
."”	-2583
反而是	-2584
相当的	-2585
♀♀	-2586
一块	-2587
一振	-2588
一来	-2589
佛怒	-2590
前来	-2591
唾沫	-2592
墨家	-2593
摆了	-2594
火灵	-2595
眸中	-2596
苏醒	-2597
逃窜	-2598
金石	-2599
骨骼	-2600
摊了摊手	-2601
击败	-2602
占据	-2603
寒芒	-2604
山顶	-2605
摆手	-2606
穆蛇	-2607
统领	-2608
要塞	-2609
轰击	-2610
随时	-2611
了一番	-2612
的身形	-2613
暴掠而出	-2614
炼药师公会	-2615
三道	-2616
便能	-2617
包围	-2618
匹练	-2619
印记	-2620
嘶哑	-2621
惊诧	-2622
流转	-2623
自从	-2624
说着	-2625
驱逐	-2626
黑擎	-2627
停留在	-2628
不远处的	-2629
也并非是	-2630
-,	-2631
一击	-2632
乌云	-2633
倩影	-2634
地图	-2635
抱歉	-2636
本就	-2637
潜力	-2638
罕见	-2639
血潭	-2640
▁薰儿	-2641
得有些	-2642
特别是	-2643
莲心火	-2644
拱了拱手	-2645
灵魂感知	-2646
所有人都是	-2647
一拳	-2648
任由	-2649
掠出	-2650
老生	-2651
说是	-2652
躯体	-2653
遥远	-2654
青阳	-2655
顶尖	-2656
他心中	-2657
弥漫着	-2658
猛然间	-2659
若是有	-2660
对于萧炎	-2661
年轻一辈	-2662
袖袍一挥	-2663
参赛	-2664
嘲讽	-2665
当场	-2666
掠去	-2667
撇了	-2668
要求	-2669
北龙王	-2670
在中州	-2671
彻彻底	-2672
药鼎之内	-2673
,"	-2674
中级	-2675
何况	-2676
倾洒	-2677
全场	-2678
划过	-2679
就能	-2680
差点	-2681
白眼	-2682
的从	-2683
语气	-2684
银芒	-2685
龙兽	-2686
任何人	-2687
的声响	-2688
广场之上	-2689
药鼎之中	-2690
蔓延而出	-2691
乃是	-2692
五人	-2693
喷出	-2694
最终	-2695
月媚	-2696
韩闲	-2697
战斗力	-2698
火长老	-2699
竟然还	-2700
▁瞧	-2701
不对	-2702
不着	-2703
不论	-2704
挥动	-2705
摸了	-2706
暗自	-2707
毒斑	-2708
略感	-2709
而当	-2710
虚弱	-2711
顷刻	-2712
骨幽	-2713
在那里	-2714
强大的	-2715
极大的	-2716
轰隆隆	-2717
黑皇宗	-2718
佛怒火莲	-2719
却是见到	-2720
在黑角域	-2721
摆了摆手	-2722
渗透而出	-2723
一道道目光	-2724
都是在此刻	-2725
不动	-2726
叹道	-2727
对我	-2728
展现	-2729
散去	-2730
生机	-2731
这两	-2732
咬着牙	-2733
如此之	-2734
更何况	-2735
深深的	-2736
萧炎倒是	-2737
一座	-2738
丫头	-2739
出云	-2740
在我	-2741
忘记	-2742
想来	-2743
敬畏	-2744
洪家	-2745
灰色	-2746
西北	-2747
进来	-2748
随手	-2749
?!”	-2750
古青阳	-2751
声喝道	-2752
我们的	-2753
若是再	-2754
不管如何	-2755
在了一起	-2756
炼制丹药	-2757
片刻之后	-2758
都是有着	-2759
隐隐有着	-2760
的摇了摇头	-2761
一掌	-2762
二哥	-2763
低级	-2764
前面	-2765
回到	-2766
大半	-2767
打量	-2768
群人	-2769
边缘	-2770
迟早	-2771
飘飘	-2772
▁这般	-2773
凭借着	-2774
完全的	-2775
小小的	-2776
根本就	-2777
此时的	-2778
的发现	-2779
闪烁着	-2780
面面相	-2781
自然便是	-2782
虚无空间	-2783
不甘	-2784
与你	-2785
代价	-2786
性的	-2787
流逝	-2788
说完	-2789
走了	-2790
那我	-2791
青鸾	-2792
也并未	-2793
其中的	-2794
声音中	-2795
尖锐的	-2796
干什么	-2797
必然会	-2798
的出现	-2799
陷入了	-2800
也不知道	-2801
紫色火焰	-2802
在加玛帝国	-2803
轻吐了一口气	-2804
尚还	-2805
开了	-2806
方言	-2807
炸响	-2808
窃窃	-2809
遗迹	-2810
随便	-2811
的可怕	-2812
轻易的	-2813
阶魔兽	-2814
现在的他	-2815
萧炎脸色	-2816
这片天地	-2817
他所	-2818
族纹	-2819
无视	-2820
熏儿	-2821
稍稍	-2822
膨胀	-2823
行出	-2824
阻碍	-2825
▁话音	-2826
然后在	-2827
的方向	-2828
石台上	-2829
魔毒斑	-2830
难以掩饰	-2831
了耸	-2832
他与	-2833
传承	-2834
大变	-2835
成员	-2836
打击	-2837
拿出	-2838
着这	-2839
说道	-2840
那从	-2841
摸了摸	-2842
放心吧	-2843
的对手	-2844
顷刻间	-2845
出云帝国	-2846
旋即目光	-2847
侵蚀	-2848
倒飞	-2849
分身	-2850
咔嚓	-2851
子的	-2852
射出	-2853
将你	-2854
心脏	-2855
拦住	-2856
玉盒	-2857
眼光	-2858
穿过	-2859
算了	-2860
翻了	-2861
茶杯	-2862
连他	-2863
一些人	-2864
的背影	-2865
眨眼间	-2866
窃窃私	-2867
▁感受着	-2868
也是变得	-2869
不安	-2870
便可	-2871
吐出	-2872
地位	-2873
大小	-2874
帝都	-2875
待会	-2876
得上	-2877
怨毒	-2878
有何	-2879
满意	-2880
火海	-2881
的冲	-2882
眼力	-2883
被其	-2884
耸了耸	-2885
微微一皱	-2886
窃窃私语	-2887
让得他们	-2888
一顿	-2889
下巴	-2890
凄惨	-2891
大手	-2892
帐篷	-2893
整片	-2894
澎湃	-2895
琥乾	-2896
砸在	-2897
黯淡	-2898
也只得	-2899
他倒是	-2900
眼中的	-2901
能量的	-2902
这种事	-2903
进入了	-2904
▁第一千	-2905
便是对着	-2906
在此	-2907
夭夜	-2908
好运	-2909
尽量	-2910
是我	-2911
有多	-2912
沙铁	-2913
的战	-2914
翻滚	-2915
联军	-2916
见面	-2917
那也	-2918
锁定	-2919
也是会	-2920
很多人	-2921
成为了	-2922
旋即便是	-2923
难以置信	-2924
面面相觑	-2925
’,	-2926
一转	-2927
之辈	-2928
代表	-2929
凉气	-2930
动了	-2931
席位	-2932
年纪	-2933
快若	-2934
惨白	-2935
暴冲	-2936
获得	-2937
角落	-2938
闭上	-2939
交给我	-2940
寻常人	-2941
的巨大	-2942
的笑容	-2943
也是迅速	-2944
大多都是	-2945
一分	-2946
冷喝	-2947
几日	-2948
升起	-2949
安全	-2950
服用	-2951
记得	-2952
那在	-2953
钻进	-2954
不会再	-2955
了一抹	-2956
原来是	-2957
快速的	-2958
而且还	-2959
若是不	-2960
微微一怔	-2961
无形火焰	-2962
萧炎面前	-2963
身形一闪	-2964
▁就在萧炎	-2965
与人	-2966
交给	-2967
动人	-2968
命令	-2969
岁月	-2970
常人	-2971
戏谑	-2972
的最	-2973
粘稠	-2974
踏着	-2975
那是	-2976
银牙	-2977
的味道	-2978
半晌之后	-2979
瞟了一眼	-2980
了一口唾沫	-2981
狠狠的对着	-2982
也是忍不住的	-2983
小友	-2984
摸着	-2985
沿途	-2986
狮王	-2987
盟主	-2988
细小	-2989
绚丽	-2990
而退	-2991
耳中	-2992
透过	-2993
金币	-2994
雷云	-2995
慕青鸾	-2996
看起来	-2997
冲着萧炎	-2998
有些不太	-2999
耸了耸肩	-3000
不屑	-3001
何时	-3002
加入	-3003
声望	-3004
平原	-3005
床榻	-3006
成熟	-3007
焚烧	-3008
紧张	-3009
红衣	-3010
都要	-3011
东龙岛	-3012
低低的	-3013
目光扫	-3014
顿时一	-3015
什么时候	-3016
周围那些	-3017
爆裂而开	-3018
这般模样	-3019
▁‘	-3020
一一	-3021
但也	-3022
城墙	-3023
学长	-3024
接受	-3025
放眼	-3026
曹家	-3027
极强	-3028
范凌	-3029
荡荡	-3030
赶路	-3031
这点	-3032
都能	-3033
阵容	-3034
龙凰	-3035
倒也是	-3036
天冥宗	-3037
差不多	-3038
也终于是	-3039
却依然是	-3040
手掌一握	-3041
无奈的道	-3042
空间虫洞	-3043
萧炎一怔	-3044
在萧炎身上	-3045
出口	-3046
嘀咕	-3047
回合	-3048
对了	-3049
棘手	-3050
水晶	-3051
漫天	-3052
烛坤	-3053
粉红	-3054
自其	-3055
开口道	-3056
灵魂体	-3057
紫晶翼	-3058
撇了撇嘴	-3059
万蝎	-3060
主意	-3061
光幕	-3062
前十	-3063
劲力	-3064
大涨	-3065
大笑	-3066
得意	-3067
打扰	-3068
熊战	-3069
直到	-3070
老怪	-3071
茫然	-3072
萧潇	-3073
闷响	-3074
在此处	-3075
怎么办	-3076
所有的	-3077
最大的	-3078
月时间	-3079
的问道	-3080
翻了翻	-3081
弥漫而开	-3082
空间裂缝	-3083
身形便是	-3084
或许是因为	-3085
琉璃莲心火	-3086
”’	-3087
停滞	-3088
像是	-3089
击中	-3090
对待	-3091
惊呼	-3092
步伐	-3093
生死	-3094
着头	-3095
脱离	-3096
贪婪	-3097
阁主	-3098
震慑	-3099
一丝丝	-3100
了开去	-3101
修炼的	-3102
加列奥	-3103
我倒是	-3104
携带着	-3105
说起来	-3106
紫晶翼狮王	-3107
咽了一口唾沫	-3108
下一	-3109
争夺	-3110
优秀	-3111
印结	-3112
原因	-3113
吩咐	-3114
柔软	-3115
真实	-3116
苦涩	-3117
被那	-3118
身边	-3119
附近	-3120
顶多	-3121
了开来	-3122
声响起	-3123
疗伤药	-3124
的位置	-3125
的身份	-3126
三位长老	-3127
纳戒之中	-3128
将目光投向	-3129
的望着萧炎	-3130
轻叹了一声	-3131
▁突如其来的	-3132
一圈	-3133
不休	-3134
凰天	-3135
制造	-3136
削瘦	-3137
后背	-3138
引来	-3139
找到	-3140
插手	-3141
数百	-3142
瞥了	-3143
胡乱	-3144
脖子	-3145
虚子	-3146
说来	-3147
走到	-3148
踏出	-3149
辰闲	-3150
这座	-3151
那就	-3152
陌生	-3153
从萧炎	-3154
出现时	-3155
并不能	-3156
星斗皇	-3157
皆是一	-3158
这两个	-3159
云岚宗的	-3160
脸庞之上	-3161
云岚宗弟子	-3162
▁......	-3163
上来	-3164
倒霉	-3165
坐下	-3166
天才	-3167
怀疑	-3168
暂时	-3169
有关	-3170
极致	-3171
清秀	-3172
灵智	-3173
烈的	-3174
给他	-3175
运气	-3176
那样	-3177
震动	-3178
面无	-3179
首次	-3180
骚动	-3181
骨头	-3182
并不会	-3183
紧闭的	-3184
起来的	-3185
三千雷动	-3186
也就是说	-3187
修炼状态	-3188
喝声落下	-3189
最后化为	-3190
萧炎嘴角	-3191
▁见到这一幕	-3192
眼中掠过一抹	-3193
▁萧炎微微点头	-3194
也有	-3195
仔细	-3196
双脚	-3197
口气	-3198
可比	-3199
妮子	-3200
晶卡	-3201
紫云	-3202
血腥	-3203
霸道	-3204
了一句	-3205
你若是	-3206
就在其	-3207
过来的	-3208
暴射而去	-3209
没想到这	-3210
面无表情	-3211
便走出现在了	-3212
凌影	-3213
地道	-3214
探测	-3215
树干	-3216
漩涡	-3217
结局	-3218
血迹	-3219
讥讽	-3220
记忆	-3221
下方的	-3222
也知道	-3223
怎么样	-3224
的新生	-3225
竟然会	-3226
他自然是	-3227
白发老者	-3228
盯着萧炎	-3229
的黑袍青年	-3230
萧炎的目光	-3231
太虚古龙一族	-3232
也要	-3233
五十	-3234
付出	-3235
利马	-3236
反正	-3237
宝贝	-3238
帮你	-3239
投射	-3240
拖延	-3241
热闹	-3242
美人	-3243
脸上	-3244
铠甲	-3245
青红	-3246
万蝎门	-3247
与他们	-3248
因此而	-3249
成了一	-3250
甚至是	-3251
的那位	-3252
皱眉道	-3253
紧握着	-3254
该死的	-3255
青灵丹	-3256
都是变得	-3257
苦笑着摇了摇头	-3258
下面	-3259
与我	-3260
也好	-3261
交锋	-3262
剧痛	-3263
古玉	-3264
急促	-3265
提起	-3266
支撑	-3267
正面	-3268
火龙	-3269
灵液	-3270
王尘	-3271
小公主	-3272
瞬间后	-3273
这一霎	-3274
颇为的	-3275
魂殿的	-3276
▁小医仙	-3277
不知为何	-3278
也不可能	-3279
响了起来	-3280
方才缓缓	-3281
仅有	-3282
任务	-3283
你可	-3284
侍女	-3285
天山	-3286
的落	-3287
算做	-3288
还在	-3289
多大的	-3290
大部分	-3291
小兄弟	-3292
不过好在	-3293
升腾而起	-3294
彻彻底底的	-3295
一方	-3296
一踏	-3297
丝丝	-3298
他能	-3299
侥幸	-3300
办到	-3301
地上	-3302
地域	-3303
坊市	-3304
燃烧	-3305
犹豫	-3306
的冰	-3307
稚嫩	-3308
缓慢	-3309
首领	-3310
一阵阵	-3311
修长的	-3312
在这个	-3313
成功率	-3314
是一个	-3315
的地位	-3316
两道身影	-3317
冷笑一声	-3318
消失不见	-3319
叹息了一声	-3320
你要	-3321
半年	-3322
境界	-3323
天魔	-3324
底牌	-3325
急退	-3326
怪异	-3327
抹去	-3328
残留	-3329
淬炼	-3330
的风	-3331
那片	-3332
靠着	-3333
你应该	-3334
弥漫的	-3335
极其的	-3336
而在这	-3337
远处的	-3338
魂虚子	-3339
却是忽然	-3340
的青色火焰	-3341
萧炎不由得	-3342
何等	-3343
守护	-3344
封锁	-3345
明的	-3346
曹单	-3347
比较	-3348
配合	-3349
首位	-3350
也不用	-3351
微眯着	-3352
这可是	-3353
便是再度	-3354
闪现而出	-3355
的盯着萧炎	-3356
妩媚	-3357
性命	-3358
期间	-3359
洞府	-3360
测验	-3361
百米	-3362
这幅	-3363
▁而在	-3364
参赛者	-3365
感受着那	-3366
露出一抹	-3367
的能量波动	-3368
也没	-3369
仰天	-3370
反抗	-3371
宋清	-3372
破碎	-3373
胜利	-3374
闪避	-3375
阴影	-3376
不错的	-3377
在他的	-3378
异火榜	-3379
格外的	-3380
淡笑道	-3381
若不是	-3382
这一步	-3383
不着痕迹	-3384
心中也是	-3385
身体表面	-3386
体内暴涌而出	-3387
!“	-3388
不低	-3389
兰克	-3390
关注	-3391
出一	-3392
历练	-3393
厉喝	-3394
受伤	-3395
可就	-3396
咬了	-3397
当做	-3398
得不	-3399
火浪	-3400
用来	-3401
肉眼	-3402
药力	-3403
萧媚	-3404
谢谢	-3405
不过却	-3406
之外的	-3407
了进去	-3408
弗兰克	-3409
眼瞳中	-3410
等待着	-3411
紫云翼	-3412
这次的	-3413
重要的	-3414
也是逐渐	-3415
目光望向	-3416
如今的实力	-3417
实在是太过	-3418
不已	-3419
声波	-3420
失踪	-3421
微蹙	-3422
打开	-3423
无匹	-3424
未能	-3425
火蟒	-3426
相撞	-3427
空洞	-3428
艰难	-3429
这枚	-3430
魂厉	-3431
当年的	-3432
忽然间	-3433
接触到	-3434
眉心处	-3435
算不得	-3436
袍老者	-3437
远远的	-3438
便是有着	-3439
房间之中	-3440
所有人的	-3441
▁萧炎笑了笑	-3442
▁从	-3443
一握	-3444
也太	-3445
价值	-3446
宗门	-3447
恩怨	-3448
某种	-3449
柳席	-3450
椅子	-3451
气质	-3452
永远	-3453
满场	-3454
潮水	-3455
熊熊	-3456
看你	-3457
着一	-3458
穆力	-3459
身法	-3460
道道	-3461
▁站在	-3462
一个个	-3463
不过在	-3464
实力的	-3465
岂不是	-3466
相当之	-3467
自其中	-3468
以萧炎的	-3469
直接是将	-3470
雄浑斗气	-3471
萧炎脸庞上	-3472
难以掩饰的	-3473
下手	-3474
主动	-3475
先是	-3476
培养	-3477
摊开	-3478
明天	-3479
某一	-3480
缠绕	-3481
罢了	-3482
衣袍	-3483
雏丹	-3484
青火	-3485
高的	-3486
以萧炎	-3487
轻飘飘	-3488
还不待	-3489
翻了翻白眼	-3490
了舔	-3491
冷冷	-3492
好好	-3493
所幸	-3494
欣慰	-3495
状况	-3496
砰砰	-3497
结出	-3498
谷主	-3499
与薰儿	-3500
了一圈	-3501
便是得	-3502
凄厉的	-3503
变成了	-3504
星斗者	-3505
的女子	-3506
萧炎将	-3507
便是化为	-3508
涌现一抹	-3509
冷笑了一声	-3510
萧炎微微一笑	-3511
一惊	-3512
以来	-3513
几年	-3514
惊雷	-3515
收获	-3516
放过	-3517
知晓	-3518
精血	-3519
紫褐	-3520
老妖	-3521
超越	-3522
逊色	-3523
隐约	-3524
一个不	-3525
强悍的	-3526
方才是	-3527
是一片	-3528
的血脉	-3529
的那股	-3530
舔了舔	-3531
一道身影	-3532
抬头望着	-3533
萧炎有些	-3534
黑袍青年	-3535
现在的萧炎	-3536
住了	-3537
体积	-3538
信息	-3539
先祖	-3540
加老	-3541
咧嘴	-3542
四面	-3543
团长	-3544
在你	-3545
墨承	-3546
对碰	-3547
小觑	-3548
心动	-3549
怒吼	-3550
无可	-3551
昏迷	-3552
毒蛇	-3553
毕岩	-3554
石门	-3555
缩小	-3556
规模	-3557
跳动	-3558
难度	-3559
默默	-3560
却是在	-3561
大陆上	-3562
客气的	-3563
将他们	-3564
的有些	-3565
让他们	-3566
包裹而进	-3567
半个小时	-3568
接下来的	-3569
陀舍古帝玉	-3570
,’	-3571
三色	-3572
九品	-3573
侵入	-3574
巨龙	-3575
影响	-3576
我是	-3577
承受	-3578
望了	-3579
汹涌	-3580
灰紫	-3581
生物	-3582
超级	-3583
这人	-3584
首发	-3585
黑炎	-3586
分钟后	-3587
感兴趣	-3588
的机会	-3589
的气氛	-3590
的波动	-3591
七彩吞天蟒	-3592
低声喃喃道	-3593
目光注视下	-3594
丹城	-3595
之余	-3596
停下	-3597
右手	-3598
失去	-3599
微闭	-3600
打着	-3601
接连	-3602
有的	-3603
沉睡	-3604
湖泊	-3605
痛苦	-3606
眨了	-3607
确定	-3608
高台	-3609
▁在这	-3610
因为他	-3611
在了那	-3612
一声冷笑	-3613
心神一动	-3614
有丝毫的	-3615
脸庞上的笑容	-3616
刺耳	-3617
双臂	-3618
嘎吱	-3619
强上	-3620
搞得	-3621
晋级	-3622
本王	-3623
毒气	-3624
比他	-3625
火红	-3626
然大	-3627
生命	-3628
精致	-3629
说到	-3630
踏入	-3631
选拔	-3632
仅仅只	-3633
得到了	-3634
总算是	-3635
的那般	-3636
而萧炎	-3637
郝长老	-3638
却是犹如	-3639
脑海之中	-3640
铺天盖地	-3641
一挑	-3642
产生	-3643
你了	-3644
印决	-3645
妖花	-3646
媲美	-3647
学生	-3648
柳菲	-3649
炎利	-3650
的深	-3651
自爆	-3652
谈话	-3653
辽阔	-3654
迹象	-3655
院长	-3656
三人的	-3657
了一把	-3658
二长老	-3659
的人群	-3660
的效果	-3661
神秘的	-3662
也是陡然	-3663
萧炎方才	-3664
一大	-3665
光罩	-3666
头疼	-3667
态度	-3668
愣了	-3669
我就	-3670
日子	-3671
暴露	-3672
涨红	-3673
火山	-3674
紧随	-3675
缝隙	-3676
警惕	-3677
轰出	-3678
轰轰	-3679
退出	-3680
魂魔	-3681
在天际	-3682
完美的	-3683
惊人的	-3684
是什么	-3685
有资格	-3686
清晰的	-3687
的情况	-3688
的脸颊	-3689
短时间	-3690
顿时间	-3691
高台上	-3692
一段时间	-3693
纳兰家族	-3694
而伴随着	-3695
这一次的	-3696
一天	-3697
万归	-3698
不行	-3699
不足	-3700
光影	-3701
妖娆	-3702
小嘴	-3703
很强	-3704
扫视	-3705
抗拒	-3706
漠铁	-3707
袍服	-3708
见识	-3709
邪君	-3710
对自己	-3711
居然还	-3712
惊天动	-3713
璀璨的	-3714
的变化	-3715
见到那	-3716
在其身后	-3717
妖花邪君	-3718
席卷而出	-3719
想到此处	-3720
眼眸微眯	-3721
这种地步	-3722
那巨大的	-3723
万一	-3724
丹堂	-3725
凶猛	-3726
分散	-3727
卡岗	-3728
反射	-3729
四名	-3730
在下	-3731
地底	-3732
天目	-3733
找死	-3734
木铁	-3735
火苗	-3736
珍稀	-3737
稳住	-3738
经常	-3739
脸皮	-3740
花费	-3741
蝎子	-3742
蝎山	-3743
贵宾	-3744
▁一旁	-3745
也将会	-3746
众人的	-3747
在一处	-3748
此次的	-3749
没事吧	-3750
的资格	-3751
离开了	-3752
种异火	-3753
蝎毕岩	-3754
没有任何	-3755
那老家伙	-3756
都是无法	-3757
鬼魅般的	-3758
密密麻麻的	-3759
——	-3760
也正	-3761
人流	-3762
划破	-3763
原地	-3764
场地	-3765
垂涎	-3766
弱的	-3767
振动	-3768
沉寂	-3769
破裂	-3770
远非	-3771
韩冲	-3772
▁身体	-3773
叹息道	-3774
对于他	-3775
我知道	-3776
既然你	-3777
有丝毫	-3778
的意思	-3779
那么便	-3780
都不是	-3781
▁一旁的	-3782
有着一种	-3783
转身对着	-3784
这般举动	-3785
.”	-3786
但他	-3787
使劲	-3788
心思	-3789
愿意	-3790
我便	-3791
我能	-3792
无语	-3793
木战	-3794
木桩	-3795
树枝	-3796
死寂	-3797
激烈	-3798
灰尘	-3799
狼头	-3800
连那	-3801
那副	-3802
雪魅	-3803
。”“	-3804
动人的	-3805
圣丹城	-3806
第三更	-3807
紫晶源	-3808
叹了一声	-3809
岩浆世界	-3810
段斗之气	-3811
简直就是	-3812
这些东西	-3813
▁萧炎的目光	-3814
一卷	-3815
低喝	-3816
力道	-3817
包括	-3818
北城	-3819
听说	-3820
在意	-3821
妈的	-3822
对这	-3823
星界	-3824
极限	-3825
椅上	-3826
滔天	-3827
狠辣	-3828
看向	-3829
说得	-3830
购买	-3831
那团	-3832
靠近	-3833
▁听着	-3834
了几分	-3835
森林中	-3836
若是被	-3837
萧炎轻	-3838
▁萧炎的	-3839
九幽黄泉	-3840
从其体内	-3841
听得萧炎	-3842
居然便是	-3843
略微沉吟	-3844
纹青灵丹	-3845
萧炎手中	-3846
灵魂感知力	-3847
一柄	-3848
下次	-3849
乃至	-3850
了你	-3851
修复	-3852
修行	-3853
地带	-3854
好吧	-3855
对此	-3856
敏锐	-3857
桀桀	-3858
疼痛	-3859
的前	-3860
直直	-3861
美目	-3862
莫崖	-3863
葱郁	-3864
这条	-3865
预料	-3866
场中的	-3867
清脆的	-3868
之后不久	-3869
也是再度	-3870
便是陡然	-3871
所需要的	-3872
这片空间	-3873
阶别的强者	-3874
两股	-3875
亲眼	-3876
你还	-3877
千年	-3878
压力	-3879
古朴	-3880
声中	-3881
天毒	-3882
太久	-3883
延伸	-3884
惊恐	-3885
成长	-3886
每次	-3887
测试	-3888
海老	-3889
瞧见	-3890
腾山	-3891
自主	-3892
裂开	-3893
黄色	-3894
但如今	-3895
吸引力	-3896
将那些	-3897
惨叫声	-3898
日时间	-3899
的佣兵	-3900
的距离	-3901
而成的	-3902
要知道	-3903
都未曾	-3904
对于这种	-3905
巅峰强者	-3906
有着许些	-3907
然后对着	-3908
若是没有	-3909
萧炎眼中	-3910
魂魔老人	-3911
五百	-3912
关键	-3913
具有	-3914
匹敌	-3915
堪称	-3916
大批	-3917
奇怪	-3918
宗派	-3919
帝品	-3920
心情	-3921
快要	-3922
指着	-3923
数十	-3924
沾染	-3925
涌进	-3926
照耀	-3927
理智	-3928
落地	-3929
蜥蜴	-3930
血雾	-3931
谁能	-3932
高阶	-3933
也只是	-3934
内院的	-3935
在面前	-3936
提醒道	-3937
的那道	-3938
破坏力	-3939
级别的	-3940
那可是	-3941
颤抖着	-3942
只见得那	-3943
天山血潭	-3944
心中却是	-3945
眼瞳之中	-3946
这些药材	-3947
萧炎的身体	-3948
吸了一口凉气	-3949
交谈	-3950
体型	-3951
停顿	-3952
单独	-3953
命的	-3954
回事	-3955
密林	-3956
小蛇	-3957
尽快	-3958
山壁	-3959
怒喝	-3960
我要	-3961
探出	-3962
早已	-3963
有事	-3964
极难	-3965
楼阁	-3966
灵气	-3967
筑基	-3968
紫黑	-3969
羡慕	-3970
轻微	-3971
过了	-3972
这名	-3973
金银	-3974
随之	-3975
▁因此	-3976
丹药的	-3977
先是一	-3978
冷喝道	-3979
定然会	-3980
的少女	-3981
直接被	-3982
蝎龙兽	-3983
便是犹如	-3984
发出一道	-3985
天阶斗技	-3986
当下便是	-3987
扩散而开	-3988
有着一个	-3989
体内的斗气	-3990
有着不小的	-3991
萧炎望着那	-3992
hú	-3993
乐祸	-3994
你便	-3995
冷静	-3996
古界	-3997
将它	-3998
帝境	-3999
幸灾	-4000
恍然	-4001
战圈	-4002
抵挡	-4003
拉着	-4004
斗晶	-4005
明日	-4006
穿透	-4007
若无	-4008
都没	-4009
▁虽说	-4010
也没有	-4011
引起了	-4012
微笑着	-4013
旋即在	-4014
的那个	-4015
都不会	-4016
隐藏着	-4017
倒飞而出	-4018
幸灾乐祸	-4019
的小医仙	-4020
瞧得萧炎	-4021
面色凝重	-4022
一层	-4023
上下	-4024
不堪	-4025
了揉	-4026
五名	-4027
人物	-4028
再来	-4029
冲进	-4030
前去	-4031
定力	-4032
抢夺	-4033
眼前	-4034
碎石	-4035
▁苏千	-4036
将自己	-4037
怕也是	-4038
恐怕会	-4039
来不及	-4040
灵魂的	-4041
狼狈的	-4042
的拳头	-4043
能够与	-4044
能量体	-4045
能量罩	-4046
都是要	-4047
一些实力	-4048
便是迅速	-4049
却是发现	-4050
身上扫过	-4051
面色阴沉	-4052
不由得有些	-4053
如今的萧炎	-4054
也是浮现一抹	-4055
之所	-4056
亮的	-4057
修长	-4058
北阁	-4059
压缩	-4060
古域	-4061
同伴	-4062
回头	-4063
回答	-4064
地话	-4065
带来	-4066
应付	-4067
星域	-4068
月光	-4069
沉闷	-4070
满是	-4071
环境	-4072
珍贵	-4073
而回	-4074
胡须	-4075
药丹	-4076
视野	-4077
轻弹	-4078
这份	-4079
雁落	-4080
面子	-4081
鼻子	-4082
hún	-4083
也不再	-4084
了一步	-4085
他们也	-4086
但萧炎	-4087
宽敞的	-4088
揉了揉	-4089
死死的	-4090
满意的	-4091
火属性	-4092
熟悉的	-4093
盯着那	-4094
眸子中	-4095
睁开了	-4096
第一个	-4097
笼罩着	-4098
而在那	-4099
距离时	-4100
那东西	-4101
嘴中传出	-4102
帝品雏丹	-4103
手掌之上	-4104
散发而出	-4105
未曾料到	-4106
越来越多	-4107
这小家伙	-4108
也是缓缓的	-4109
便是出现在	-4110
都是忍不住的	-4111
他那	-4112
偷偷	-4113
厉害	-4114
可没	-4115
四十	-4116
妙的	-4117
招呼	-4118
改变	-4119
斗篷	-4120
此行	-4121
残图	-4122
殷红	-4123
波荡	-4124
洞口	-4125
活着	-4126
深入	-4127
牢牢	-4128
瞬息	-4129
神奇	-4130
而至	-4131
走向	-4132
身材	-4133
部位	-4134
雷光	-4135
之后的	-4136
了一般	-4137
发现了	-4138
大家族	-4139
或许是	-4140
有些发	-4141
模糊的	-4142
洪天啸	-4143
然大物	-4144
甚至连	-4145
相抗衡	-4146
药万归	-4147
也是微微	-4148
修炼天赋	-4149
毁灭火莲	-4150
烛离长老	-4151
笑吟吟的道	-4152
一会	-4153
不如	-4154
丰富	-4155
光线	-4156
八方	-4157
几次	-4158
号称	-4159
回了	-4160
小手	-4161
崩裂	-4162
徘徊	-4163
我这	-4164
扩大	-4165
抚着	-4166
易尘	-4167
深山	-4168
灰衣	-4169
狮鹫	-4170
疲惫	-4171
盘坐	-4172
看其	-4173
站立	-4174
融化	-4175
解释	-4176
身处	-4177
邀请	-4178
那人	-4179
重击	-4180
闯进	-4181
阁下	-4182
也正是	-4183
他已经	-4184
便是从	-4185
冰冷的	-4186
十分钟	-4187
却是被	-4188
弄到手	-4189
急速的	-4190
每一个	-4191
都没有	-4192
到得后来	-4193
在半空中	-4194
庞然大物	-4195
眨眼时间	-4196
筑基灵液	-4197
金银二老	-4198
二品炼药师	-4199
快若闪电般的	-4200
一沉	-4201
不凡	-4202
不觉	-4203
之火	-4204
于是	-4205
几率	-4206
北王	-4207
后悔	-4208
吸纳	-4209
扬了	-4210
投入	-4211
抖动	-4212
抵抗	-4213
整齐	-4214
点点	-4215
纹丝	-4216
背上	-4217
苦修	-4218
药液	-4219
黑盟	-4220
了一分	-4221
你现在	-4222
包裹在	-4223
天北城	-4224
并不想	-4225
有可能	-4226
然后将	-4227
的黑雾	-4228
隐藏在	-4229
顺利的	-4230
▁感受到	-4231
也是因为	-4232
如此一来	-4233
有着一道	-4234
萧炎顿时	-4235
这所谓的	-4236
金色火焰	-4237
笑眯眯的道	-4238
轻松了一口气	-4239
眼中也是掠过一抹	-4240
一看	-4241
他还	-4242
传进	-4243
光凭	-4244
光点	-4245
凡是	-4246
危机	-4247
变的	-4248
后期	-4249
外人	-4250
大军	-4251
少数	-4252
感谢	-4253
拼了	-4254
方式	-4255
晋升	-4256
最高	-4257
来回	-4258
桌面	-4259
汗水	-4260
湮灭	-4261
生怕	-4262
的灯	-4263
盘踞	-4264
落入	-4265
行进	-4266
说出	-4267
轻点	-4268
辛苦	-4269
韩池	-4270
骂道	-4271
一出现	-4272
具备着	-4273
喉咙间	-4274
扬了扬	-4275
方才会	-4276
望了望	-4277
柳长老	-4278
的念头	-4279
的方位	-4280
纳兰肃	-4281
雁落天	-4282
也同样是	-4283
令得他们	-4284
喷射而出	-4285
无形火蟒	-4286
望了一眼	-4287
森白火焰	-4288
萧炎先生	-4289
跟了上去	-4290
小医仙等人	-4291
萧炎摇了摇头	-4292
一场	-4293
化成	-4294
后的	-4295
屁股	-4296
放下	-4297
无穷	-4298
无论	-4299
更强	-4300
枫城	-4301
沿着	-4302
火毒	-4303
的啊	-4304
的的	-4305
瞧出	-4306
短暂	-4307
称呼	-4308
背景	-4309
能与	-4310
血海	-4311
赫家	-4312
那枚	-4313
震退	-4314
魂元	-4315
▁而且	-4316
便是自	-4317
冷声道	-4318
到现在	-4319
刺眼的	-4320
大多数	-4321
广场中	-4322
特殊的	-4323
的一幕	-4324
看这模样	-4325
闪掠而来	-4326
丈许	-4327
不死	-4328
丹界	-4329
人家	-4330
仪式	-4331
修习	-4332
六百	-4333
各处	-4334
品阶	-4335
喜意	-4336
展开	-4337
弟兄	-4338
总部	-4339
成绩	-4340
步的	-4341
狂猛	-4342
破解	-4343
若有	-4344
透明	-4345
骸骨	-4346
高速	-4347
不过当	-4348
但若是	-4349
停在了	-4350
其手中	-4351
凌厉的	-4352
无比的	-4353
的青色	-4354
眨了眨	-4355
空荡荡	-4356
传说中的	-4357
倾洒而下	-4358
却是能够	-4359
怎么回事	-4360
短时间内	-4361
竟然便是	-4362
竟然能够	-4363
而随着其	-4364
萧炎身旁	-4365
越来越近	-4366
不着痕迹的	-4367
狼头佣兵团	-4368
............	-4369
下风	-4370
不停	-4371
丘陵	-4372
丹域	-4373
了好	-4374
你那	-4375
动用	-4376
喧哗	-4377
圣者	-4378
墙壁	-4379
失神	-4380
奥巴	-4381
姐妹	-4382
年的	-4383
所过	-4384
方圆	-4385
火鼎	-4386
符文	-4387
约定	-4388
肌肉	-4389
训练	-4390
连绵	-4391
通玄	-4392
隐晦	-4393
雷电	-4394
飘荡	-4395
齐山	-4396
对他们	-4397
愣了愣	-4398
段距离	-4399
疑惑的	-4400
的女人	-4401
突兀的	-4402
让得她	-4403
这女人	-4404
隐隐的	-4405
飞速的	-4406
不由自主	-4407
四面八方	-4408
居然能够	-4409
眉头紧皱	-4410
萧炎微微	-4411
那些家伙	-4412
吸了一口气	-4413
也得	-4414
便宜	-4415
僵持	-4416
冲天	-4417
十多	-4418
只会	-4419
咳嗽	-4420
好像	-4421
岩石	-4422
巨蟒	-4423
忍受	-4424
拇指	-4425
斩杀	-4426
机缘	-4427
牙齿	-4428
由此	-4429
轻风	-4430
迅猛	-4431
过的	-4432
充满着	-4433
色丹雷	-4434
那时候	-4435
▁而随着	-4436
有所察觉	-4437
没有理会	-4438
盘腿而坐	-4439
自然不会	-4440
六品炼药师	-4441
持续了将近	-4442
之底	-4443
之状	-4444
其内	-4445
反噬	-4446
合作	-4447
呜呜	-4448
地阶	-4449
奈何	-4450
守卫	-4451
屏障	-4452
得一	-4453
必要	-4454
惧怕	-4455
慵懒	-4456
我还	-4457
掌印	-4458
是那	-4459
温和	-4460
温柔	-4461
火儿	-4462
生火	-4463
的这	-4464
笑的	-4465
落的	-4466
询问	-4467
走廊	-4468
陛下	-4469
青衣	-4470
黑线	-4471
在周围	-4472
早已经	-4473
气息的	-4474
白色的	-4475
的威力	-4476
的温度	-4477
的麻烦	-4478
突破至	-4479
☆☆☆☆	-4480
与小医仙	-4481
也是开始	-4482
传出一道	-4483
修炼速度	-4484
对于这个	-4485
应该也是	-4486
微皱着眉头	-4487
微笑着点了点头	-4488
~~	-4489
上方	-4490
乱的	-4491
了抖	-4492
会长	-4493
充盈	-4494
创造	-4495
升空	-4496
围观	-4497
山林	-4498
惊慌	-4499
手爪	-4500
抬眼	-4501
换取	-4502
是谁	-4503
格外	-4504
洞穿	-4505
温暖	-4506
玉片	-4507
融入	-4508
这小	-4509
▁似是	-4510
也的确	-4511
了好几	-4512
依靠着	-4513
做什么	-4514
却依然	-4515
只有着	-4516
回荡着	-4517
当初在	-4518
想起了	-4519
抖了抖	-4520
的脑袋	-4521
突破到	-4522
这么久	-4523
他的实力	-4524
嘿嘿一笑	-4525
萧炎忽然	-4526
沉吟了一会	-4527
淡淡的笑道	-4528
直接是令得	-4529
一滴	-4530
之门	-4531
云层	-4532
保证	-4533
凶狠	-4534
古虚	-4535
吴辰	-4536
安慰	-4537
定了	-4538
更甚	-4539
最强	-4540
殆尽	-4541
气丹	-4542
漂浮	-4543
独自	-4544
脚下	-4545
蒸发	-4546
郁闷	-4547
音爆	-4548
▁突然	-4549
一个小	-4550
与魂殿	-4551
了一丝	-4552
刚好是	-4553
只听得	-4554
响起的	-4555
在先前	-4556
在场的	-4557
将这些	-4558
少宗主	-4559
星斗灵	-4560
这两人	-4561
金色的	-4562
天际之上	-4563
掀起一抹	-4564
狂暴能量	-4565
额头上的	-4566
飞掠而去	-4567
漠铁佣兵团	-4568
一趟	-4569
别说	-4570
可还	-4571
可那	-4572
喧闹	-4573
将我	-4574
崩溃	-4575
巨树	-4576
摧毁	-4577
是想	-4578
沙之	-4579
的看	-4580
眼芒	-4581
维持	-4582
萎靡	-4583
葛叶	-4584
讶异	-4585
雷池	-4586
骷髅	-4587
龙皇	-4588
▁此时	-4589
▁脸色	-4590
也难以	-4591
势力的	-4592
在半空	-4593
在这等	-4594
对面的	-4595
恭声道	-4596
悄然的	-4597
无声息	-4598
炼制出	-4599
狮鹫兽	-4600
的两人	-4601
的大厅	-4602
的弟子	-4603
贵宾席	-4604
都知道	-4605
偏头对着	-4606
着萧炎的	-4607
绝对不会	-4608
萧炎手指	-4609
风雷北阁	-4610
天毒蝎龙兽	-4611
萧炎终于是	-4612
颤抖了起来	-4613
▁血	-4614
一震	-4615
不够	-4616
两三	-4617
但在	-4618
你说	-4619
切的	-4620
到时	-4621
发挥	-4622
名额	-4623
吐血	-4624
品质	-4625
大盛	-4626
大赛	-4627
天猿	-4628
形容	-4629
掠进	-4630
晶层	-4631
来吧	-4632
死了	-4633
派人	-4634
清澈	-4635
略有	-4636
的石	-4637
省油	-4638
瞳孔	-4639
稀罕	-4640
笔直	-4641
舞动	-4642
苍穹	-4643
还请	-4644
部队	-4645
魂风	-4646
魔雷	-4647
声响彻	-4648
怎么了	-4649
成功的	-4650
手一挥	-4651
的薰儿	-4652
看来这	-4653
瞧得那	-4654
老人的	-4655
脑海中	-4656
苍白的	-4657
转过身	-4658
这倒是	-4659
那小子	-4660
魔天猿	-4661
▁见到那	-4662
不管怎样	-4663
两种异火	-4664
兄弟姐妹	-4665
内院之中	-4666
在这一刻	-4667
斗尊巅峰	-4668
的笑了笑	-4669
空间通道	-4670
脚尖一点	-4671
萧炎兄弟	-4672
萧炎并未	-4673
三纹青灵丹	-4674
灵魂力量的	-4675
之名	-4676
了我	-4677
内心	-4678
再说	-4679
分殿	-4680
可爱	-4681
多加	-4682
幻境	-4683
庄园	-4684
想着	-4685
懒得	-4686
所见	-4687
扫向	-4688
星辰	-4689
气流	-4690
清冷	-4691
的好	-4692
竞技	-4693
荡漾	-4694
莽荒	-4695
说明	-4696
遗留	-4697
闷哼	-4698
院落	-4699
除非	-4700
面对	-4701
▁两者	-4702
一脸的	-4703
从天际	-4704
又是一	-4705
寻找到	-4706
成功了	-4707
某一刻	-4708
猛然自	-4709
的名头	-4710
的喝声	-4711
的尽头	-4712
那模样	-4713
魂元天	-4714
两年时间	-4715
嘭的一声	-4716
是何等的	-4717
苍老身影	-4718
远古种族	-4719
忍不住的一	-4720
无数道目光	-4721
炽热的温度	-4722
一群	-4723
一颗	-4724
不止	-4725
主要	-4726
介绍	-4727
出场	-4728
剧毒	-4729
吃了	-4730
头人	-4731
怠慢	-4732
战场	-4733
抿着	-4734
收进	-4735
日的	-4736
是他	-4737
暗红	-4738
最快	-4739
的水	-4740
精彩	-4741
行动	-4742
贝齿	-4743
远超	-4744
不过是	-4745
含笑道	-4746
比起来	-4747
而且这	-4748
蜥蜴人	-4749
也是不敢	-4750
他的身体	-4751
到得最后	-4752
在地面上	-4753
并不知道	-4754
悄无声息	-4755
而到时候	-4756
肉眼可见	-4757
至少也是	-4758
萧炎望着	-4759
萧炎脸庞	-4760
进入其中	-4761
▁与	-4762
▁以	-4763
上风	-4764
专门	-4765
之位	-4766
余的	-4767
便先	-4768
八星	-4769
十五	-4770
十指	-4771
千丈	-4772
去找	-4773
可否	-4774
可数	-4775
多了	-4776
天色	-4777
尾巴	-4778
惋惜	-4779
意味	-4780
搜寻	-4781
晋阶	-4782
暴动	-4783
杀气	-4784
玉石	-4785
磨挲	-4786
罗侯	-4787
论起	-4788
跟在	-4789
迎面	-4790
逃脱	-4791
遭受	-4792
长发	-4793
陆牧	-4794
隔绝	-4795
雷赢	-4796
黑洞	-4797
什么事	-4798
其身形	-4799
再如何	-4800
大笑道	-4801
天魔蟒	-4802
妖天啸	-4803
将会是	-4804
带来的	-4805
我们也	-4806
所说的	-4807
的功法	-4808
的名字	-4809
的学员	-4810
的心火	-4811
被称为	-4812
都已经	-4813
青色的	-4814
了他一眼	-4815
仅仅只有	-4816
咬了咬牙	-4817
在天空上	-4818
漆黑眸中	-4819
皱了皱眉	-4820
通玄长老	-4821
顿时变得	-4822
也是微微一	-4823
沙之佣兵团	-4824
萧炎的实力	-4825
,”	-4826
七星	-4827
交织	-4828
享受	-4829
冲突	-4830
出世	-4831
可这	-4832
四方	-4833
塞进	-4834
外院	-4835
巨响	-4836
整座	-4837
方面	-4838
某些	-4839
检查	-4840
每天	-4841
漠城	-4842
烟雾	-4843
留情	-4844
相差	-4845
笑笑	-4846
米尔	-4847
绕是	-4848
走去	-4849
转了	-4850
郑重	-4851
风声	-4852
黑尺	-4853
上一次	-4854
不出来	-4855
他的话	-4856
十几名	-4857
古虚龙	-4858
回来了	-4859
回气丹	-4860
地萧炎	-4861
左右的	-4862
惊骇的	-4863
的一种	-4864
盘坐在	-4865
盛长老	-4866
给萧炎	-4867
表面上	-4868
轩护法	-4869
黑色的	-4870
一个小时	-4871
却是有些	-4872
太古虚龙	-4873
如今的他	-4874
泛起一抹	-4875
省油的灯	-4876
眉头一皱	-4877
萧炎也不	-4878
萧炎缓缓	-4879
狠狠的撞击	-4880
一招	-4881
不下	-4882
不在	-4883
不远	-4884
之势	-4885
之的	-4886
他这	-4887
你在	-4888
你有	-4889
冷意	-4890
化的	-4891
化解	-4892
压下	-4893
发展	-4894
多说	-4895
头皮	-4896
密布	-4897
就会	-4898
巨蛇	-4899
强光	-4900
惊人	-4901
敌人	-4902
期待	-4903
期盼	-4904
残破	-4905
没人	-4906
清醒	-4907
狂妄	-4908
百丈	-4909
的图	-4910
等到	-4911
细细	-4912
西开	-4913
贴着	-4914
适合	-4915
遗憾	-4916
青山	-4917
面积	-4918
▁眼睛	-4919
不过我	-4920
丹塔的	-4921
他方才	-4922
后不久	-4923
后者的	-4924
小心点	-4925
的空气	-4926
释放着	-4927
颇有些	-4928
▁巨大的	-4929
也是极为	-4930
八品丹药	-4931
实力达到	-4932
涌现而出	-4933
白色火焰	-4934
能够成为	-4935
无数道目光的注视下	-4936
!)	-4937
。,	-4938
一半	-4939
一株	-4940
付敖	-4941
倾泻	-4942
兽火	-4943
凶魂	-4944
呢喃	-4945
天南	-4946
宗师	-4947
小说	-4948
巨头	-4949
投注	-4950
收集	-4951
物品	-4952
竞争	-4953
茫茫	-4954
蓝衣	-4955
血丹	-4956
血池	-4957
视为	-4958
谷尼	-4959
面孔	-4960
▁场中	-4961
不容易	-4962
中传出	-4963
了几步	-4964
代表着	-4965
十几道	-4966
如此的	-4967
将整个	-4968
异样的	-4969
愤怒的	-4970
房间中	-4971
的族人	-4972
神秘人	-4973
让我们	-4974
辰天南	-4975
净莲妖圣	-4976
半圣强者	-4977
有着一抹	-4978
石台之上	-4979
究竟是何	-4980
踏着虚空	-4981
不可能的事	-4982
一星	-4983
变了	-4984
哆嗦	-4985
头发	-4986
完整	-4987
密室	-4988
强度	-4989
待遇	-4990
意识	-4991
晶莹	-4992
束缚	-4993
枯竭	-4994
炙烤	-4995
生活	-4996
白袍	-4997
眼皮	-4998
稀少	-4999
管理	-5000
翡翠	-5001
脑子	-5002
蔚蓝	-5003
重视	-5004
鸣声	-5005
交易会	-5006
化生火	-5007
因为那	-5008
在这般	-5009
得犹如	-5010
斗灵丹	-5011
灰袍人	-5012
的同时	-5013
的落下	-5014
胸口处	-5015
莫名其	-5016
薰儿的	-5017
话语中	-5018
这里是	-5019
那萧炎	-5020
▁第六百	-5021
大殿之内	-5022
应该不会	-5023
微微闪烁	-5024
斗皇巅峰	-5025
森林之中	-5026
萧炎面色	-5027
这个名字	-5028
进入内院	-5029
自其体内暴涌而出	-5030
一幕	-5031
一朵	-5032
不假	-5033
丹王	-5034
之心	-5035
优雅	-5036
冷艳	-5037
出言	-5038
压压	-5039
古特	-5040
家主	-5041
帮我	-5042
心惊	-5043
把你	-5044
来自	-5045
次的	-5046
波及	-5047
玄金	-5048
瞟了	-5049
立于	-5050
虚影	-5051
跟我	-5052
蹬蹬	-5053
远去	-5054
雏形	-5055
▁两人	-5056
一缕缕	-5057
了一阵	-5058
他们所	-5059
他现在	-5060
到极致	-5061
就这般	-5062
我也不	-5063
抚摸着	-5064
施展了	-5065
有机会	-5066
玄金雷	-5067
的便是	-5068
的药方	-5069
苏长老	-5070
若真是	-5071
融血丹	-5072
选拔赛	-5073
一道黑影	-5074
三年时间	-5075
但却并未	-5076
咬着红唇	-5077
天目山脉	-5078
带着许些	-5079
拳头之上	-5080
片刻时间	-5081
的那一刻	-5082
终于是在	-5083
而其身形	-5084
自然是要	-5085
许久之后	-5086
转过身来	-5087
远古遗迹	-5088
闪掠而过	-5089
淡淡的声音	-5090
也是点了点头	-5091
▁萧炎点了点头	-5092
缓缓的吐了一口气	-5093
一边	-5094
不急	-5095
不绝	-5096
不菲	-5097
云雾	-5098
何处	-5099
再者	-5100
城中	-5101
天阶	-5102
她也	-5103
姐姐	-5104
我与	-5105
所想	-5106
收好	-5107
木盆	-5108
流动	-5109
白帮	-5110
盔甲	-5111
纹路	-5112
给人	-5113
记住	-5114
车队	-5115
轻笑	-5116
▁脚步	-5117
一挥手	-5118
不过那	-5119
俏脸上	-5120
停下了	-5121
到最后	-5122
只要你	-5123
支队伍	-5124
更加的	-5125
最好的	-5126
狮冥宗	-5127
的笑声	-5128
硕大的	-5129
..."	-5130
▁察觉到	-5131
似乎也是	-5132
头人长老	-5133
小医仙与	-5134
目光也是	-5135
睁开双眼	-5136
空间之中	-5137
能量波动	-5138
血脉之力	-5139
那般模样	-5140
额头之上	-5141
弥漫而出的	-5142
显得格外的	-5143
一筹	-5144
一缩	-5145
他对	-5146
体质	-5147
做到	-5148
六星	-5149
关头	-5150
前往	-5151
反对	-5152
增幅	-5153
就此	-5154
巨人	-5155
干尸	-5156
想法	-5157
指挥	-5158
收服	-5159
来得	-5160
某处	-5161
淡然	-5162
火奴	-5163
玄丹	-5164
现出	-5165
白雾	-5166
碎片	-5167
站于	-5168
绯红	-5169
腐蚀	-5170
血宗	-5171
进攻	-5172
阴阳	-5173
▁再次	-5174
。’’	-5175
了一遍	-5176
令得她	-5177
半点的	-5178
成一片	-5179
是不是	-5180
而在其	-5181
身上的	-5182
过多的	-5183
麻烦了	-5184
不是什么	-5185
九玄金雷	-5186
也是难以	-5187
众人便是	-5188
几乎已经	-5189
几乎是在	-5190
即便如此	-5191
山洞之中	-5192
提升实力	-5193
有些感到	-5194
纹丝不动	-5195
缓缓的在	-5196
能够看见	-5197
实在是有些	-5198
见到这一幕	-5199
不信	-5200
举起	-5201
交战	-5202
体乳	-5203
冷气	-5204
匕首	-5205
告辞	-5206
在与	-5207
天怒	-5208
射向	-5209
小辈	-5210
开的	-5211
慌乱	-5212
打得	-5213
招惹	-5214
挂着	-5215
指向	-5216
挑衅	-5217
断裂	-5218
朝前	-5219
本尊	-5220
深蓝	-5221
灵族	-5222
煅烧	-5223
略一	-5224
确是	-5225
绝望	-5226
而不	-5227
自身	-5228
虚眯	-5229
黑云	-5230
▁瞧着	-5231
▁这些	-5232
不住的	-5233
了回去	-5234
伸出手	-5235
凶猛的	-5236
可不会	-5237
在经过	-5238
宽大的	-5239
手掌上	-5240
比先前	-5241
的血色	-5242
算得上	-5243
而至于	-5244
苦笑着	-5245
还需要	-5246
门口处	-5247
阶别的	-5248
中的萧炎	-5249
却是陡然	-5250
对于他们	-5251
小医仙的	-5252
斗灵强者	-5253
显得有些	-5254
脸色微变	-5255
药老也是	-5256
萧炎三人	-5257
萧炎对着	-5258
这种情况	-5259
▁听得此话	-5260
不少人都是	-5261
不由自主的	-5262
抬头望着那	-5263
级别的强者	-5264
长长的吐了一口气	-5265
丹香	-5266
交代	-5267
你就	-5268
偷袭	-5269
凶名	-5270
剧变	-5271
听到	-5272
噬金	-5273
在她	-5274
大了	-5275
天冥	-5276
居高	-5277
当时	-5278
得很	-5279
总归	-5280
惊疑	-5281
慢慢	-5282
斑斓	-5283
有这	-5284
构建	-5285
森严	-5286
欢呼	-5287
毒雾	-5288
洪立	-5289
火芒	-5290
琳菲	-5291
痊愈	-5292
硬碰	-5293
胆子	-5294
还想	-5295
造化	-5296
▁紫研	-5297
▁身形	-5298
一定要	-5299
不过他	-5300
了多少	-5301
位长老	-5302
周围那	-5303
唐火儿	-5304
噬金鼠	-5305
居然会	-5306
拥有了	-5307
淡漠的	-5308
的气势	-5309
缓缓地	-5310
落在了	-5311
进了那	-5312
!!!!	-5313
▁魂天帝	-5314
三种异火	-5315
六品丹药	-5316
大厅之中	-5317
收回目光	-5318
火焰之中	-5319
经脉之中	-5320
能量涟漪	-5321
脸色阴沉	-5322
那个家伙	-5323
那庞大的	-5324
在萧炎心中	-5325
“”	-5326
”。	-5327
一件	-5328
七八	-5329
举办	-5330
人心	-5331
伸手	-5332
做的	-5333
关于	-5334
定要	-5335
庆幸	-5336
循环	-5337
心焰	-5338
情感	-5339
感叹	-5340
时不	-5341
明眸	-5342
是你	-5343
曲线	-5344
杀手	-5345
来找	-5346
火球	-5347
狂热	-5348
的高	-5349
直冲	-5350
真价	-5351
纤细	-5352
血刀	-5353
袅袅	-5354
诱人	-5355
踪迹	-5356
轻柔	-5357
输了	-5358
这团	-5359
青丝	-5360
出一道	-5361
可真是	-5362
后面的	-5363
在体内	-5364
对方的	-5365
平静的	-5366
恐怕是	-5367
所凝聚	-5368
散发出	-5369
有多少	-5370
玄冥宗	-5371
的冲动	-5372
看台上	-5373
置可否	-5374
菩提子	-5375
萧炎从	-5376
闪烁间	-5377
颜色的	-5378
不用担心	-5379
他们也是	-5380
他们能够	-5381
停留在了	-5382
古龙一族	-5383
收入纳戒	-5384
灰衣老者	-5385
莽荒古域	-5386
赤火长老	-5387
转过头来	-5388
远远看去	-5389
沉吟了片刻	-5390
紧皱着眉头	-5391
上门	-5392
众目	-5393
便好	-5394
减缓	-5395
双腿	-5396
受了	-5397
喷吐	-5398
妖异	-5399
小小	-5400
手下	-5401
拦截	-5402
无力	-5403
毛孔	-5404
满身	-5405
狞笑	-5406
白皙	-5407
空地	-5408
等你	-5409
背负	-5410
致命	-5411
苓儿	-5412
踏足	-5413
雷纳	-5414
黑蛇	-5415
你还是	-5416
修炼了	-5417
停止了	-5418
包裹着	-5419
半个月	-5420
恭敬的	-5421
或许会	-5422
有这般	-5423
海心焰	-5424
狰狞的	-5425
的控制	-5426
的药老	-5427
第三层	-5428
货真价	-5429
那原本	-5430
♀♀♀♀	-5431
一名身着	-5432
不过可惜	-5433
丹塔老祖	-5434
却是令得	-5435
目光扫过	-5436
般的存在	-5437
苦笑一声	-5438
这等实力	-5439
这里的人	-5440
非常清楚	-5441
可不是什么	-5442
微微皱了皱	-5443
斗气大陆上	-5444
星斗圣后期	-5445
身上扫了扫	-5446
一跺	-5447
从而	-5448
位于	-5449
你不	-5450
再有	-5451
凑齐	-5452
古图	-5453
合适	-5454
咫尺	-5455
壮硕	-5456
妖艳	-5457
姿态	-5458
小腹	-5459
帮手	-5460
很想	-5461
我看	-5462
手持	-5463
暗劲	-5464
极快	-5465
猎捕	-5466
白的	-5467
的四	-5468
看不	-5469
矗立	-5470
石柱	-5471
碰触	-5472
繁琐	-5473
脑中	-5474
苛刻	-5475
落败	-5476
蛮横	-5477
血精	-5478
袭击	-5479
说的	-5480
那边	-5481
都被	-5482
铁棍	-5483
长久	-5484
青灵	-5485
▁所以	-5486
不同的	-5487
剑尊者	-5488
忘记了	-5489
拍卖师	-5490
振动着	-5491
毕竟是	-5492
的主人	-5493
的大战	-5494
紫研的	-5495
缭绕在	-5496
这就是	-5497
遇见了	-5498
万火长老	-5499
他没想到	-5500
刚欲说话	-5501
到了什么	-5502
即便是他	-5503
却并没有	-5504
斗帝强者	-5505
炼药师的	-5506
爆炸而开	-5507
的火属性	-5508
萧炎眼睛	-5509
黄泉天怒	-5510
在萧炎手中	-5511
萧炎微微点头	-5512
%%	-5513
一战	-5514
一根	-5515
一面	-5516
两步	-5517
之味	-5518
乐意	-5519
交叉	-5520
你想	-5521
倒退	-5522
停在	-5523
催促	-5524
兽域	-5525
冥河	-5526
出面	-5527
南海	-5528
取而	-5529
口中	-5530
圆润	-5531
废墟	-5532
戈尔	-5533
我不	-5534
抽出	-5535
接下	-5536
暗暗	-5537
极崩	-5538
沉声	-5539
浪费	-5540
深洞	-5541
煞队	-5542
熟练	-5543
甩了	-5544
留在	-5545
神涧	-5546
秘密	-5547
紧跟	-5548
苏笑	-5549
萧廷	-5550
记载	-5551
轻挥	-5552
近在	-5553
阴狠	-5554
震荡	-5555
古南海	-5556
可不能	-5557
可若是	-5558
回复了	-5559
寻常的	-5560
岩浆海	-5561
无尽的	-5562
火灵蛇	-5563
的奇异	-5564
石漠城	-5565
竟然敢	-5566
自语道	-5567
菩提心	-5568
不得不说	-5569
不置可否	-5570
也是一怔	-5571
也是犹如	-5572
五星斗尊	-5573
动了一下	-5574
最重要的	-5575
灌注进入	-5576
皆是有些	-5577
能够让得	-5578
脸色却是	-5579
萧炎身形	-5580
这道念头	-5581
▁天空之上	-5582
之间的差距	-5583
苏千大长老	-5584
货真价实的	-5585
▁的	-5586
三老	-5587
不满	-5588
中途	-5589
之旁	-5590
九星	-5591
何必	-5592
入体	-5593
八品	-5594
冲出	-5595
力丹	-5596
动容	-5597
劲道	-5598
发动	-5599
发麻	-5600
哭笑	-5601
坚固	-5602
多出	-5603
天境	-5604
性格	-5605
感激	-5606
打在	-5607
捎了	-5608
掠上	-5609
握了	-5610
放松	-5611
淡紫	-5612
狼藉	-5613
睽睽	-5614
窜出	-5615
簇拥	-5616
紫金	-5617
费尽	-5618
赫蒙	-5619
走过	-5620
退开	-5621
重量	-5622
陆续	-5623
静的	-5624
一个月	-5625
万金币	-5626
他似乎	-5627
任何的	-5628
倒并未	-5629
八极崩	-5630
其身后	-5631
冥河盟	-5632
冷漠的	-5633
副殿主	-5634
只是一	-5635
塔戈尔	-5636
家族中	-5637
就是连	-5638
并不算	-5639
强猛的	-5640
得令人	-5641
拿出来	-5642
泛起了	-5643
的劲气	-5644
的天空	-5645
的炼制	-5646
的紫研	-5647
短短几	-5648
而且那	-5649
而现在	-5650
莫名的	-5651
解决掉	-5652
赫长老	-5653
身体的	-5654
这之中	-5655
那我们	-5656
黑魔雷	-5657
▁望着这	-5658
中年男子	-5659
众目睽睽	-5660
几道身影	-5661
恐怕将会	-5662
成为一名	-5663
手中重尺	-5664
旋即迅速	-5665
雪魔天猿	-5666
▁想到此处	-5667
▁随着萧炎	-5668
在萧炎身旁	-5669
在萧炎面前	-5670
萧炎点了点头	-5671
▁两	-5672
万药	-5673
主人	-5674
乌黑	-5675
事后	-5676
五道	-5677
从容	-5678
变态	-5679
变淡	-5680
右掌	-5681
后果	-5682
含笑	-5683
固然	-5684
塔中	-5685
天凰	-5686
头上	-5687
安排	-5688
巨殿	-5689
开山	-5690
很大	-5691
我在	-5692
相对	-5693
石梯	-5694
神农	-5695
红芒	-5696
过多	-5697
青海	-5698
面庞	-5699
顺手	-5700
麻木	-5701
,"”	-5702
▁经过	-5703
不要再	-5704
也是要	-5705
了几下	-5706
似也是	-5707
便是那	-5708
凝重的	-5709
取而代	-5710
台上的	-5711
对于那	-5712
恐怕就	-5713
慕兰谷	-5714
成虚无	-5715
捎了捎	-5716
没办法	-5717
淬体乳	-5718
甩了甩	-5719
第二更	-5720
美眸中	-5721
艰难的	-5722
药老那	-5723
锋利的	-5724
面前这	-5725
额头上	-5726
一个不慎	-5727
中央位置	-5728
也是一名	-5729
实在是太	-5730
抚着胡须	-5731
消失在了	-5732
瞬间之后	-5733
立刻便是	-5734
这等强者	-5735
黑角域中	-5736
▁话音落下	-5737
加玛帝国的	-5738
喃喃了一声	-5739
所在的方向	-5740
百丈庞大的	-5741
真正的强者	-5742
自然不可能	-5743
自然是能够	-5744
便是化为一道	-5745
苦笑着点了点头	-5746
一副	-5747
一月	-5748
与她	-5749
举手	-5750
习惯	-5751
你来	-5752
光束	-5753
六品	-5754
凤凰	-5755
凶芒	-5756
千万	-5757
半尺	-5758
哪有	-5759
喷发	-5760
小道	-5761
张了	-5762
强烈	-5763
悬崖	-5764
悬空	-5765
成人	-5766
担忧	-5767
推移	-5768
无一	-5769
极少	-5770
比如	-5771
满溢	-5772
火翼	-5773
然无	-5774
爷爷	-5775
牵扯	-5776
电光	-5777
离火	-5778
紧缩	-5779
胜负	-5780
艳羡	-5781
血战	-5782
退去	-5783
部落	-5784
降临	-5785
面露	-5786
黄阶	-5787
齐齐	-5788
▁一道	-5789
▁手指	-5790
不过你	-5791
了一条	-5792
于身后	-5793
人都是	-5794
以前的	-5795
但却是	-5796
出色的	-5797
可如今	-5798
四天尊	-5799
旋即那	-5800
的庞大	-5801
的迹象	-5802
直接将	-5803
相当于	-5804
知道了	-5805
经历了	-5806
萧炎地	-5807
这些事	-5808
那一直	-5809
不知不觉	-5810
倒的确是	-5811
却是已经	-5812
宛如实质	-5813
手掌缓缓	-5814
拳头紧握	-5815
爆发而出	-5816
狠狠的砸	-5817
的大长老	-5818
的小女孩	-5819
萧炎再度	-5820
萧炎脚步	-5821
近在咫尺	-5822
顿时响起	-5823
骂了一声	-5824
对于萧炎的	-5825
惊天动地的	-5826
没有半点的	-5827
究竟是什么	-5828
米特尔拍卖场	-5829
sè	-5830
上那	-5831
不比	-5832
不耐	-5833
不说	-5834
九凤	-5835
九十	-5836
人多	-5837
八翼	-5838
冰灵	-5839
凶险	-5840
奇迹	-5841
如水	-5842
嫉妒	-5843
小镇	-5844
就要	-5845
尺影	-5846
干瘦	-5847
弹射	-5848
忐忑	-5849
懂得	-5850
握住	-5851
摆放	-5852
时日	-5853
来历	-5854
混账	-5855
滚烫	-5856
营地	-5857
萦绕	-5858
行事	-5859
行至	-5860
讪讪	-5861
赶来	-5862
远比	-5863
逃跑	-5864
都在	-5865
都得	-5866
银光	-5867
锤炼	-5868
阿泰	-5869
难免	-5870
顶峰	-5871
高空	-5872
默契	-5873
▁古元	-5874
▁因为	-5875
▁火焰	-5876
不会比	-5877
与药老	-5878
了十几	-5879
二人的	-5880
他清楚	-5881
冲着他	-5882
在地面	-5883
大厅内	-5884
手不及	-5885
的一座	-5886
竟然连	-5887
等人的	-5888
若是要	-5889
落神涧	-5890
闪电般	-5891
黑影人	-5892
不过还好	-5893
丹王古河	-5894
也就不再	-5895
却是缓缓	-5896
声音响起	-5897
微微一愣	-5898
微微一颤	-5899
沉声喝道	-5900
灵魂深处	-5901
突然有着	-5902
若是萧炎	-5903
萧炎眼眸	-5904
萧炎笑道	-5905
这种感觉	-5906
难以想象	-5907
扭曲的空间	-5908
深吸一口气	-5909
▁黑	-5910
一具	-5911
一抖	-5912
二字	-5913
区仙	-5914
十年	-5915
叶城	-5916
四道	-5917
团队	-5918
大刀	-5919
对她	-5920
山峦	-5921
干净	-5922
异象	-5923
微沉	-5924
心生	-5925
恍惚	-5926
所为	-5927
所能	-5928
手脚	-5929
报酬	-5930
族群	-5931
杀伐	-5932
毒辣	-5933
浅浅	-5934
消逝	-5935
炎烬	-5936
破了	-5937
稀奇	-5938
美妇	-5939
莫测	-5940
蒙力	-5941
袖中	-5942
觉的	-5943
负手	-5944
还得	-5945
通知	-5946
金铁	-5947
障壁	-5948
!’’	-5949
▁此刻	-5950
上许多	-5951
平日里	-5952
异常的	-5953
张了张	-5954
我可以	-5955
没有人	-5956
瞟了瞟	-5957
而就在	-5958
萧家的	-5959
选择了	-5960
钻进了	-5961
▁见到这	-5962
也是悄然	-5963
仅仅只能	-5964
心头也是	-5965
掠过许些	-5966
措手不及	-5967
斗气双翼	-5968
斗破苍穹	-5969
方才逐渐	-5970
死寂之门	-5971
突然响起	-5972
能够达到	-5973
萧炎眼神	-5974
那么便是	-5975
飞行斗技	-5976
▁话音一落	-5977
便走出现在	-5978
千丈庞大的	-5979
即便是萧炎	-5980
暴掠而来的	-5981
现在的实力	-5982
萧炎一行人	-5983
陨落心炎的	-5984
面面相觑了一眼	-5985
##	-5986
三天	-5987
三更	-5988
三百	-5989
为止	-5990
也敢	-5991
保存	-5992
偏僻	-5993
前的	-5994
反击	-5995
大喝	-5996
容颜	-5997
就好	-5998
已被	-5999
弯身	-6000
思议	-6001
截然	-6002
掌风	-6003
无聊	-6004
晶体	-6005
杀人	-6006
极具	-6007
某个	-6008
淡化	-6009
淡黄	-6010
烙毒	-6011
瞥着	-6012
老爷	-6013
跳跃	-6014
躺在	-6015
采取	-6016
阵法	-6017
▁由于	-6018
▁说完	-6019
不少的	-6020
不能再	-6021
了一次	-6022
今日的	-6023
使劲的	-6024
出来了	-6025
刺耳的	-6026
四方阁	-6027
失声道	-6028
如今这	-6029
居高临	-6030
得到的	-6031
恐怕连	-6032
所在的	-6033
所造成	-6034
更多的	-6035
的年轻	-6036
的方式	-6037
的火莲	-6038
的血迹	-6039
矗立在	-6040
竞技场	-6041
询问道	-6042
三大家族	-6043
咳了一声	-6044
小心一些	-6045
尽数包裹	-6046
带起一股	-6047
席卷而开	-6048
抹了一把	-6049
抹去嘴角	-6050
毫不犹豫	-6051
没想到你	-6052
炼制成功	-6053
的声音中	-6054
的黑袍人	-6055
胸膛之上	-6056
说到此处	-6057
轰隆隆的	-6058
面色都是	-6059
▁心中闪过	-6060
▁望着萧炎	-6061
波动了起来	-6062
自然是不会	-6063
自然是知道	-6064
若隐若现的	-6065
难看了起来	-6066
一出	-6067
七十	-6068
三花	-6069
不差	-6070
不算	-6071
不自	-6072
严厉	-6073
中所	-6074
之顶	-6075
做完	-6076
光华	-6077
凭你	-6078
凶戾	-6079
切磋	-6080
北方	-6081
双瞳	-6082
反映	-6083
口处	-6084
可他	-6085
地人	-6086
妖凰	-6087
对战	-6088
尽力	-6089
尽是	-6090
差错	-6091
张开	-6092
强化	-6093
心理	-6094
怔怔	-6095
懒腰	-6096
戒备	-6097
打听	-6098
抹除	-6099
拳风	-6100
换作	-6101
掠来	-6102
擒住	-6103
放大	-6104
故意	-6105
文字	-6106
火柱	-6107
眉宇	-6108
荧光	-6109
跳了	-6110
过得	-6111
退缩	-6112
销售	-6113
高耸	-6114
▁心神	-6115
。。。	-6116
中州上	-6117
之所以	-6118
也不能	-6119
也清楚	-6120
云岚山	-6121
以往的	-6122
切米尔	-6123
却并不	-6124
嘀咕道	-6125
大势力	-6126
尽全力	-6127
是萧炎	-6128
猛的自	-6129
的手段	-6130
的神秘	-6131
的那枚	-6132
转了转	-6133
阴冷的	-6134
难道是	-6135
黑皇城	-6136
▁第五百	-6137
一年时间	-6138
一阵波动	-6139
三大龙王	-6140
不断的在	-6141
五品丹药	-6142
出了一个	-6143
喷了出来	-6144
地阶斗技	-6145
对于这些	-6146
山峰之上	-6147
岩枭先生	-6148
有着几分	-6149
漆黑色的	-6150
由此可见	-6151
给人一种	-6152
萧炎一笑	-6153
顿时有些	-6154
并没有什么	-6155
逐渐的变得	-6156
一跃	-6157
两条	-6158
举止	-6159
从天	-6160
伴生	-6161
你会	-6162
借口	-6163
儿子	-6164
几条	-6165
分出	-6166
切齿	-6167
加速	-6168
又能	-6169
变动	-6170
唐鹰	-6171
在座	-6172
外围	-6173
宣布	-6174
射进	-6175
岩城	-6176
平衡	-6177
异动	-6178
当其	-6179
成的	-6180
找个	-6181
挑了	-6182
掏出	-6183
无用	-6184
更多	-6185
未免	-6186
杨皓	-6187
残魂	-6188
气得	-6189
沉思	-6190
清雅	-6191
瀑布	-6192
照射	-6193
的传	-6194
目露	-6195
相战	-6196
确实	-6197
碧蛇	-6198
神情	-6199
祭坛	-6200
稳稳	-6201
紫光	-6202
老妪	-6203
老子	-6204
而他	-6205
舒畅	-6206
触摸	-6207
警戒	-6208
谢震	-6209
谷中	-6210
貌似	-6211
铜片	-6212
▁缓缓	-6213
交出来	-6214
地实力	-6215
坚硬的	-6216
定然是	-6217
得意的	-6218
心头的	-6219
斗破的	-6220
无人能	-6221
是如何	-6222
犹如那	-6223
的一名	-6224
的人流	-6225
的大殿	-6226
的药力	-6227
虽然他	-6228
让萧炎	-6229
陌生的	-6230
魔兽的	-6231
两道人影	-6232
中心位置	-6233
五大家族	-6234
八翼黑蛇	-6235
冲天而起	-6236
咬牙切齿	-6237
哭笑不得	-6238
嘿嘿笑道	-6239
女王陛下	-6240
好不容易	-6241
这么大的	-6242
魂殿强者	-6243
黄泉妖圣	-6244
▁听得这话	-6245
瞥了一眼那	-6246
无奈的点了点头	-6247
▁萧炎微微点了点头	-6248
▁轻	-6249
一句	-6250
一堆	-6251
不轻	-6252
两女	-6253
以你	-6254
你先	-6255
保留	-6256
傲气	-6257
免得	-6258
兽潮	-6259
分开	-6260
到那	-6261
各样	-6262
圣城	-6263
增加	-6264
如雷	-6265
寒冰	-6266
尺身	-6267
山涧	-6268
得知	-6269
微张	-6270
心里	-6271
把玩	-6272
是要	-6273
游身	-6274
火炫	-6275
珠体	-6276
眼花	-6277
窜进	-6278
等我	-6279
纱衣	-6280
耀眼	-6281
自信	-6282
蜈崖	-6283
表哥	-6284
裁判	-6285
趋势	-6286
这块	-6287
一条条	-6288
了一片	-6289
了无数	-6290
但这种	-6291
便是要	-6292
入其中	-6293
出什么	-6294
受到了	-6295
基本上	-6296
尽头的	-6297
我已经	-6298
有一些	-6299
柔软的	-6300
桌面上	-6301
猎捕赛	-6302
的一位	-6303
的强横	-6304
的手臂	-6305
的那名	-6306
自然会	-6307
▁听得这	-6308
▁淡淡的	-6309
一声低喝	-6310
不过所幸	-6311
不过这种	-6312
之外行去	-6313
了一会后	-6314
他的目光	-6315
停了下来	-6316
分钟时间	-6317
到得现在	-6318
可却依然	-6319
在了萧炎	-6320
岩浆之中	-6321
房间之内	-6322
此刻也是	-6323
炼药大师	-6324
碧蛇三花	-6325
稳住身形	-6326
第一时间	-6327
脚掌之上	-6328
苍老声音	-6329
萧炎只得	-6330
蔓延而开	-6331
这样的话	-6332
▁感受着那	-6333
在这种时候	-6334
地心淬体乳	-6335
清楚的知道	-6336
炼药师大会	-6337
苍老的声音	-6338
萧炎的举动	-6339
微微摇了摇头	-6340
,,	-6341
一手	-6342
万里	-6343
与这	-6344
两天	-6345
严浩	-6346
交接	-6347
从这	-6348
仿若	-6349
但其	-6350
八十	-6351
冒着	-6352
千里	-6353
厚的	-6354
古真	-6355
后山	-6356
吟声	-6357
增强	-6358
夜空	-6359
字体	-6360
安心	-6361
崩塌	-6362
左手	-6363
恭喜	-6364
想想	-6365
才会	-6366
承认	-6367
报复	-6368
时期	-6369
明亮	-6370
晚上	-6371
晶壁	-6372
极大	-6373
极高	-6374
氛围	-6375
洪水	-6376
漠然	-6377
火花	-6378
炮弹	-6379
精力	-6380
给了	-6381
翻涌	-6382
胜算	-6383
至今	-6384
认真	-6385
设置	-6386
话题	-6387
该死	-6388
调动	-6389
路上	-6390
适应	-6391
遍布	-6392
避开	-6393
降服	-6394
青石	-6395
高傲	-6396
鳞片	-6397
黝黑	-6398
▁这个	-6399
不对劲	-6400
与萧厉	-6401
世界上	-6402
也同样	-6403
也并非	-6404
了他的	-6405
你们的	-6406
因此在	-6407
在天空	-6408
天蛇府	-6409
存在于	-6410
小区仙	-6411
强烈的	-6412
急促的	-6413
意料的	-6414
成一团	-6415
挑了挑	-6416
控制着	-6417
握了握	-6418
望着这	-6419
杀意的	-6420
的性子	-6421
的看着	-6422
的血液	-6423
的诱惑	-6424
虽然这	-6425
跳了跳	-6426
都不敢	-6427
便是这般	-6428
先是一怔	-6429
刚刚出现	-6430
各种各样	-6431
在萧炎的	-6432
山脉之中	-6433
带着一丝	-6434
有着一点	-6435
液体能量	-6436
漆黑戒指	-6437
的时间中	-6438
的能量体	-6439
空间之力	-6440
缓缓的从	-6441
脸颊上的	-6442
萧炎再次	-6443
虽说如今	-6444
这种等级	-6445
那样的话	-6446
高速旋转	-6447
▁对于萧炎	-6448
七品炼药师	-6449
八翼黑蛇皇	-6450
想起了什么	-6451
碧蛇三花瞳	-6452
脸庞上也是	-6453
这个小家伙	-6454
萧炎眉头微皱	-6455
进入修炼状态	-6456
略微迟疑了一下	-6457
一百	-6458
不大	-6459
丰满	-6460
之多	-6461
乖乖	-6462
也算	-6463
了搓	-6464
云散	-6465
人体	-6466
人海	-6467
他会	-6468
你去	-6469
凝神	-6470
几天	-6471
出色	-6472
击溃	-6473
北域	-6474
千陌	-6475
听过	-6476
咂了	-6477
咂嘴	-6478
啦啦	-6479
四个	-6480
圆满	-6481
地点	-6482
天蝎	-6483
奇物	-6484
妖女	-6485
妖暝	-6486
对那	-6487
巨嘴	-6488
建立	-6489
愣愣	-6490
放进	-6491
晚了	-6492
来往	-6493
毫光	-6494
烟消	-6495
盈盈	-6496
确切	-6497
粉尘	-6498
精进	-6499
落进	-6500
解开	-6501
走近	-6502
转动	-6503
金属	-6504
齐全	-6505
▁萧玄	-6506
▁这一	-6507
了一处	-6508
了一股	-6509
他发现	-6510
体内那	-6511
你怎么	-6512
便是能	-6513
因为这	-6514
在这些	-6515
天墓之	-6516
太多的	-6517
必然是	-6518
惊呼声	-6519
愕然的	-6520
杀了他	-6521
满脸的	-6522
的局面	-6523
的弧度	-6524
的强悍	-6525
老爷子	-6526
裙女子	-6527
说出来	-6528
那也是	-6529
不可思议	-6530
不知何时	-6531
倒还真是	-6532
手印一变	-6533
捎了捎头	-6534
整个中州	-6535
灵魂之力	-6536
烟消云散	-6537
狠狠的轰	-6538
目光望着	-6539
磅礴斗气	-6540
竟然如此	-6541
超级强者	-6542
身体上的	-6543
身法斗技	-6544
转向萧炎	-6545
轻飘飘的	-6546
远远超过	-6547
魂殿的人	-6548
▁萧炎面色	-6549
所在的方位	-6550
然而还不待	-6551
一名斗宗强者	-6552
清晰的感觉到	-6553
狠狠的对着萧炎	-6554
▁萧炎笑着点了点头	-6555
,-	-6556
一份	-6557
五星	-6558
交换	-6559
八族	-6560
刁钻	-6561
前提	-6562
半只	-6563
厌恶	-6564
反观	-6565
哗然	-6566
哪个	-6567
啪啦	-6568
啸声	-6569
喊道	-6570
坊主	-6571
大事	-6572
天尺	-6573
头颅	-6574
威势	-6575
寒雾	-6576
对恃	-6577
尽管	-6578
底细	-6579
建筑	-6580
弄焰	-6581
怎会	-6582
恭声	-6583
惊惧	-6584
懒散	-6585
执意	-6586
扫动	-6587
掀起	-6588
敏捷	-6589
暗沉	-6590
来者	-6591
楼梯	-6592
每当	-6593
气浪	-6594
清除	-6595
满头	-6596
火种	-6597
畜生	-6598
百年	-6599
的她	-6600
粗壮	-6601
素来	-6602
红脸	-6603
缓的	-6604
而降	-6605
舒展	-6606
身姿	-6607
限制	-6608
飞射	-6609
▁时间	-6610
上扫过	-6611
了他们	-6612
人群中	-6613
你自己	-6614
可却是	-6615
咆哮声	-6616
并且还	-6617
弄焰决	-6618
游身尺	-6619
照耀下	-6620
的老人	-6621
盘旋在	-6622
突然道	-6623
而如今	-6624
魂千陌	-6625
龙力丹	-6626
▁在众人	-6627
一把抓住	-6628
一道人影	-6629
七品丹药	-6630
七品高级	-6631
也是瞬间	-6632
厉声喝道	-6633
居然也是	-6634
惊雷般的	-6635
慕兰三老	-6636
斗帝血脉	-6637
斗王阶别	-6638
斗皇阶别	-6639
望着那些	-6640
极为恐怖	-6641
此刻的他	-6642
破风之声	-6643
缓缓浮现	-6644
而就在其	-6645
背后双翼	-6646
这些年中	-6647
黑衣男子	-6648
黑袍老者	-6649
出现在萧炎	-6650
悄无声息的	-6651
持续了约莫	-6652
根本不可能	-6653
舔了舔嘴唇	-6654
这个老家伙	-6655
忍不住的有些	-6656
上升	-6657
两旁	-6658
两日	-6659
两次	-6660
两色	-6661
严重	-6662
了扭	-6663
五轮	-6664
从来	-6665
便会	-6666
信任	-6667
兴致	-6668
冲撞	-6669
冷厉	-6670
凰轩	-6671
匆匆	-6672
听着	-6673
和善	-6674
夏莽	-6675
好感	-6676
宗内	-6677
幻身	-6678
幽幽	-6679
当着	-6680
怔了	-6681
惨烈	-6682
抽了	-6683
旁边	-6684
最大	-6685
枯燥	-6686
淋漓	-6687
滚滚	-6688
满心	-6689
生骨	-6690
皇极	-6691
破空	-6692
空旷	-6693
组建	-6694
联合	-6695
联系	-6696
莲花	-6697
见了	-6698
让她	-6699
试探	-6700
说起	-6701
谁也	-6702
过手	-6703
这三	-6704
这可	-6705
那小	-6706
酝酿	-6707
锦袍	-6708
骄傲	-6709
黑芒	-6710
黑衫	-6711
▁一路	-6712
一咬牙	-6713
一巴掌	-6714
也是大	-6715
他自己	-6716
以及那	-6717
但对于	-6718
几十米	-6719
刘长老	-6720
大沙漠	-6721
失败了	-6722
子一般	-6723
实力在	-6724
忌惮的	-6725
想象中	-6726
本源果	-6727
注视中	-6728
炼制的	-6729
的女孩	-6730
的问题	-6731
的黑影	-6732
相同的	-6733
看不见	-6734
睁开眼	-6735
笑容中	-6736
结束了	-6737
脱离了	-6738
见到这	-6739
还真的	-6740
霎那间	-6741
魔兽界	-6742
黑压压	-6743
▁此刻的	-6744
便是变得	-6745
否则的话	-6746
咬着银牙	-6747
多说什么	-6748
好片刻后	-6749
微微抽搐	-6750
心头却是	-6751
斗圣骨骸	-6752
有所动作	-6753
火焰风暴	-6754
然后缓缓	-6755
猛的一变	-6756
的地妖傀	-6757
红衣女子	-6758
红衣少女	-6759
能够进入	-6760
萧炎少爷	-6761
血刀圣者	-6762
负手而立	-6763
震惊之色	-6764
三品炼药师	-6765
迦南学院的	-6766
面前的萧炎	-6767
众目睽睽之下	-6768
闪电般的对着	-6769
......”,	-6770
?,	-6771
▁话	-6772
一甩	-6773
一脚	-6774
两团	-6775
个个	-6776
之强	-6777
乱石	-6778
交错	-6779
人数	-6780
低调	-6781
光印	-6782
出售	-6783
别想	-6784
可在	-6785
咂舌	-6786
噼里	-6787
她那	-6788
庇护	-6789
底蕴	-6790
微动	-6791
怒气	-6792
手来	-6793
抓着	-6794
推开	-6795
显示	-6796
有没	-6797
林海	-6798
标志	-6799
树林	-6800
桌上	-6801
此女	-6802
炎族	-6803
生丹	-6804
站起	-6805
精锐	-6806
结实	-6807
蝼蚁	-6808
衣袖	-6809
转换	-6810
金刚	-6811
钥匙	-6812
闷雷	-6813
队长	-6814
防护	-6815
飘散	-6816
骂声	-6817
高贵	-6818
▁重尺	-6819
仔细的	-6820
他可是	-6821
但他们	-6822
其面前	-6823
出手了	-6824
同样的	-6825
后者那	-6826
吞噬了	-6827
哪里去	-6828
嘴角一	-6829
多谢了	-6830
扭了扭	-6831
推荐票	-6832
搓了搓	-6833
最后被	-6834
火晶卡	-6835
炼药界	-6836
然而止	-6837
甚至于	-6838
的黑暗	-6839
看见了	-6840
绿色的	-6841
自萧炎	-6842
要看看	-6843
近距离	-6844
遥远的	-6845
那弥漫	-6846
▁被萧炎	-6847
一眼便是	-6848
不断的从	-6849
也是让得	-6850
也是随之	-6851
今日之事	-6852
便是如同	-6853
全部都是	-6854
在这一霎	-6855
天地之间	-6856
微微一缩	-6857
心中念头	-6858
特别是在	-6859
甚至是连	-6860
的小家伙	-6861
真实实力	-6862
空间都是	-6863
萧炎已经	-6864
负于身后	-6865
这种东西	-6866
这种事情	-6867
青色斗气	-6868
巴掌大小的	-6869
方才逐渐的	-6870
阴沉了下来	-6871
魂殿副殿主	-6872
一截	-6873
三弟	-6874
不掉	-6875
了颤	-6876
人马	-6877
从此	-6878
依稀	-6879
先将	-6880
冷淡	-6881
凛然	-6882
凹陷	-6883
出人	-6884
分之	-6885
双目	-6886
唇角	-6887
喷薄	-6888
外表	-6889
密的	-6890
就当	-6891
居住	-6892
巨手	-6893
平和	-6894
幽海	-6895
投足	-6896
抬了	-6897
摇晃	-6898
整理	-6899
杂种	-6900
来源	-6901
步骤	-6902
没了	-6903
火云	-6904
灿烂	-6905
盘膝	-6906
着脸	-6907
耳朵	-6908
起码	-6909
还望	-6910
骇浪	-6911
▁寂静	-6912
下方那	-6913
也不眨	-6914
了一名	-6915
了一层	-6916
了上来	-6917
付出了	-6918
以他们	-6919
你倒是	-6920
动了动	-6921
动手吧	-6922
半只脚	-6923
大圆满	-6924
她也是	-6925
察觉的	-6926
帝印决	-6927
我现在	-6928
旋转着	-6929
星斗师	-6930
有信心	-6931
犹如被	-6932
的双眼	-6933
的神色	-6934
皇极丹	-6935
相媲美	-6936
磨挲着	-6937
突然自	-6938
纤细的	-6939
若有所	-6940
要显得	-6941
见到他	-6942
这一届	-6943
这对于	-6944
这番话	-6945
这还是	-6946
都是不	-6947
颤了颤	-6948
骤然间	-6949
黑岩城	-6950
一直都是	-6951
一股吸力	-6952
三色火莲	-6953
不过现在	-6954
丝毫不比	-6955
丹会冠军	-6956
举手投足	-6957
九品玄丹	-6958
五轮离火	-6959
八星斗尊	-6960
削瘦身影	-6961
另外一名	-6962
咂了咂嘴	-6963
咧嘴一笑	-6964
噼里啪啦	-6965
声音落下	-6966
天冥老妖	-6967
屈指轻弹	-6968
急速凝聚	-6969
感受到了	-6970
所过之处	-6971
拍卖场中	-6972
暴掠而来	-6973
有所感应	-6974
望向萧炎	-6975
气旋之中	-6976
的海波东	-6977
的脸颊上	-6978
眨也不眨	-6979
眼中顿时	-6980
这种丹药	-6981
黑衣老者	-6982
毫不客气的	-6983
绝对不可能	-6984
虎头人长老	-6985
这么多年来	-6986
到了这种地步	-6987
死死的盯着那	-6988
眼中闪过一抹	-6989
目光紧紧的盯着	-6990
一寒	-6991
世间	-6992
个人	-6993
之边	-6994
以一	-6995
你吧	-6996
值得	-6997
别的	-6998
到的	-6999
前三	-7000
功效	-7001
团员	-7002
城门	-7003
多半	-7004
大海	-7005
带人	-7006
强猛	-7007
打断	-7008
拿着	-7009
损伤	-7010
掩盖	-7011
提供	-7012
收缩	-7013
方位	-7014
杀戮	-7015
树叶	-7016
欲聋	-7017
此地	-7018
残余	-7019
残存	-7020
毒药	-7021
活的	-7022
深坑	-7023
清晨	-7024
渲染	-7025
漂亮	-7026
火暴	-7027
玄异	-7028
现实	-7029
疲倦	-7030
的伤	-7031
看他	-7032
眼球	-7033
眼睁	-7034
紧了	-7035
老不	-7036
茶水	-7037
裙袍	-7038
赶往	-7039
路程	-7040
身怀	-7041
进步	-7042
追赶	-7043
那你	-7044
重负	-7045
隐匿	-7046
震碎	-7047
露面	-7048
骇得	-7049
黑湮	-7050
龙印	-7051
▁众人	-7052
▁黑色	-7053
不再是	-7054
也不过	-7055
但现在	-7056
其实力	-7057
几十名	-7058
却依旧	-7059
变了变	-7060
召唤出	-7061
噬生丹	-7062
声笑道	-7063
姚坊主	-7064
尚还未	-7065
山脉中	-7066
开山印	-7067
当年在	-7068
当年那	-7069
想要将	-7070
放弃了	-7071
施展出	-7072
激动的	-7073
牢牢的	-7074
留下来	-7075
的威压	-7076
的眸子	-7077
的能力	-7078
的血腥	-7079
的面色	-7080
眼睁睁	-7081
着眼睛	-7082
耳欲聋	-7083
葱郁的	-7084
身上下	-7085
轻叹道	-7086
连带着	-7087
露出了	-7088
青山镇	-7089
▁对于这	-7090
▁缓缓的	-7091
一个玉瓶	-7092
却是并未	-7093
变得有些	-7094
喷吐而出	-7095
噙着一抹	-7096
实力大涨	-7097
山谷之中	-7098
岩枭小友	-7099
帝境灵魂	-7100
很是有些	-7101
所有人都	-7102
斗气铠甲	-7103
望着那在	-7104
毁灭般的	-7105
涌上一股	-7106
猛然紧握	-7107
皱着眉头	-7108
精纯能量	-7109
若有若无	-7110
药老笑道	-7111
西北大陆	-7112
不管如何说	-7113
了这么多年	-7114
对于他来说	-7115
恐怕就算是	-7116
最后重重的	-7117
萧炎也是一笑	-7118
▁萧炎微微一笑	-7119
一套	-7120
三枚	-7121
不去	-7122
不散	-7123
两百	-7124
为人	-7125
了半	-7126
件事	-7127
休养	-7128
会在	-7129
佩戴	-7130
六阶	-7131
力气	-7132
参与	-7133
双拳	-7134
响亮	-7135
哗哗	-7136
场面	-7137
如玉	-7138
寒泉	-7139
层的	-7140
干扰	-7141
度过	-7142
惊咦	-7143
意见	-7144
所剩	-7145
所留	-7146
推力	-7147
掺杂	-7148
攀爬	-7149
时机	-7150
正式	-7151
淡去	-7152
深邃	-7153
溢出	-7154
灵性	-7155
灼痛	-7156
的蛇	-7157
粗略	-7158
约而	-7159
胸前	-7160
药天	-7161
血肉	-7162
补充	-7163
要好	-7164
那可	-7165
铁链	-7166
门外	-7167
难逃	-7168
静室	-7169
黄沙	-7170
丹会的	-7171
也是将	-7172
他们是	-7173
会不会	-7174
准备着	-7175
古老的	-7176
大家伙	-7177
女人的	-7178
得极为	-7179
望向那	-7180
然而其	-7181
的情绪	-7182
的状态	-7183
的青莲	-7184
笼罩在	-7185
经历过	-7186
药材的	-7187
解决了	-7188
训练场	-7189
蹬蹬的	-7190
轻微的	-7191
长老的	-7192
一声冷哼	-7193
三大龙岛	-7194
不过虽然	-7195
与云岚宗	-7196
也是略微	-7197
古帝洞府	-7198
岩浆海域	-7199
已经开始	-7200
必然不会	-7201
本身实力	-7202
条件反射	-7203
浮现许些	-7204
潮水般的	-7205
灰袍少年	-7206
焚炎谷的	-7207
相差不多	-7208
红脸老者	-7209
能够炼制	-7210
萧炎一愣	-7211
西北地域	-7212
轻轻点头	-7213
这个时候	-7214
那自然是	-7215
震耳欲聋	-7216
▁萧炎也是	-7217
三千雷幻身	-7218
安静了下来	-7219
时间的推移	-7220
望着萧炎那	-7221
此刻的后者	-7222
爆发出一阵	-7223
算不得什么	-7224
轻笑了一声	-7225
目光转向萧炎	-7226
也是松了一口气	-7227
铺天盖地的暴涌而出	-7228
?!	-7229
三族	-7230
不顾	-7231
为其	-7232
之数	-7233
九龙	-7234
云霄	-7235
亲昵	-7236
人了	-7237
仗着	-7238
你所	-7239
冲动	-7240
前冲	-7241
前行	-7242
升高	-7243
卡片	-7244
取到	-7245
吸入	-7246
喊声	-7247
喜悦	-7248
嗜血	-7249
地宝	-7250
地板	-7251
失声	-7252
宁静	-7253
寥寥	-7254
尽了	-7255
并无	-7256
应道	-7257
形状	-7258
惨叫	-7259
早早	-7260
此番	-7261
气散	-7262
深渊	-7263
王八	-7264
界限	-7265
瞧的	-7266
确的	-7267
罗家	-7268
罡火	-7269
耀日	-7270
聚集	-7271
脾气	-7272
自由	-7273
舌头	-7274
藏在	-7275
行礼	-7276
过程	-7277
这张	-7278
追击	-7279
长鞭	-7280
门主	-7281
风旋	-7282
飘飞	-7283
马车	-7284
魄力	-7285
▁拳头	-7286
不急不	-7287
之色的	-7288
也应该	-7289
了两步	-7290
你便是	-7291
具备了	-7292
只需要	-7293
家族的	-7294
对着他	-7295
山峰上	-7296
年轻的	-7297
幻大师	-7298
当他们	-7299
怔了怔	-7300
抽了抽	-7301
是一件	-7302
晋入了	-7303
有时候	-7304
森然道	-7305
椅子上	-7306
的光芒	-7307
的大汉	-7308
的尸体	-7309
的视线	-7310
笑一声	-7311
红色的	-7312
约而同	-7313
给予他	-7314
绝对是	-7315
老妖怪	-7316
萧炎这	-7317
轰击在	-7318
轻轻一	-7319
连忙道	-7320
都是得	-7321
陡然间	-7322
隐约间	-7323
顿在了	-7324
黑袍下	-7325
...“	-7326
两名老者	-7327
偏过头来	-7328
出一道道	-7329
化为一抹	-7330
化为虚无	-7331
却是让得	-7332
发出一声	-7333
只不过是	-7334
只是一个	-7335
噶然而止	-7336
在云岚宗	-7337
天墓之魂	-7338
寻常之物	-7339
平淡的道	-7340
床榻之上	-7341
异火榜上	-7342
手指上的	-7343
手掌一翻	-7344
斗宗阶别	-7345
斗气匹练	-7346
漆黑眸子	-7347
然而就在	-7348
留在这里	-7349
目光扫向	-7350
而且还是	-7351
脚掌一跺	-7352
萧炎小友	-7353
视野之中	-7354
赫家家主	-7355
这些年的	-7356
这种速度	-7357
音爆之声	-7358
伴生紫晶源	-7359
即便是一些	-7360
取而代之的	-7361
没有太大的	-7362
深吸了一口	-7363
的对着萧炎	-7364
越来越多的	-7365
对于萧炎来说	-7366
额头上的冷汗	-7367
jl	-7368
▁但	-7369
一晃	-7370
一章	-7371
三星	-7372
丢进	-7373
严皓	-7374
之效	-7375
从一	-7376
低下	-7377
借此	-7378
光洁	-7379
光滑	-7380
减少	-7381
出关	-7382
利的	-7383
只的	-7384
吃亏	-7385
名列	-7386
嘟囔	-7387
回话	-7388
场合	-7389
坐镇	-7390
孩子	-7391
射来	-7392
尺法	-7393
带走	-7394
平凡	-7395
惊涛	-7396
手上	-7397
把他	-7398
掩嘴	-7399
撤退	-7400
擅长	-7401
未闻	-7402
森寒	-7403
毒素	-7404
潮汐	-7405
煞白	-7406
独角	-7407
留手	-7408
的手	-7409
笑谈	-7410
粘附	-7411
组织	-7412
肆无	-7413
肆虐	-7414
药帮	-7415
药粉	-7416
轮廓	-7417
这处	-7418
那他	-7419
金谷	-7420
降低	-7421
额前	-7422
马上	-7423
驱使	-7424
骨子	-7425
▁“,	-7426
▁进入	-7427
不甘的	-7428
从天空	-7429
他必须	-7430
会出现	-7431
但毕竟	-7432
便只能	-7433
好东西	-7434
将所有	-7435
将手中	-7436
忽然的	-7437
想不到	-7438
我萧炎	-7439
抱歉了	-7440
无人敢	-7441
的人物	-7442
的那抹	-7443
的防御	-7444
空间船	-7445
第一更	-7446
紧盯着	-7447
而反观	-7448
而导致	-7449
而这种	-7450
背后的	-7451
至于那	-7452
药鼎中	-7453
薰儿那	-7454
这一路	-7455
这么快	-7456
里面的	-7457
雪白的	-7458
面前那	-7459
颤抖的	-7460
魂族的	-7461
也是连忙	-7462
传了出来	-7463
凌厉劲风	-7464
出了什么	-7465
前段时间	-7466
却是有着	-7467
嗤嗤声响	-7468
在其周身	-7469
定然不会	-7470
对萧炎的	-7471
屈指可数	-7472
属性斗气	-7473
所带来的	-7474
无论如何	-7475
有些疑惑	-7476
每一次的	-7477
浩瀚斗气	-7478
玄阶高级	-7479
神农老人	-7480
缓缓消散	-7481
脸色顿时	-7482
视线之中	-7483
闪掠而下	-7484
云岚宗长老	-7485
展现出来的	-7486
打量了一下	-7487
龙凰本源果	-7488
小心翼翼的将	-7489
ps	-7490
一双	-7491
一小	-7492
以我	-7493
关闭	-7494
几种	-7495
创建	-7496
后遗	-7497
咻咻	-7498
回道	-7499
塔内	-7500
壮观	-7501
大致	-7502
夺取	-7503
威风	-7504
完了	-7505
宗丹	-7506
很好	-7507
念叨	-7508
我说	-7509
托着	-7510
承喏	-7511
指间	-7512
捏碎	-7513
掌握	-7514
整整	-7515
旁观	-7516
早有	-7517
流星	-7518
浑圆	-7519
浑浊	-7520
满足	-7521
灵的	-7522
热血	-7523
狠手	-7524
狡猾	-7525
猛烈	-7526
直射	-7527
眈眈	-7528
窗户	-7529
而住	-7530
而动	-7531
腰肢	-7532
解救	-7533
赶到	-7534
转眼	-7535
过后	-7536
隐蔽	-7537
隔着	-7538
雪岚	-7539
青白	-7540
预兆	-7541
默然	-7542
▁微微	-7543
一点点	-7544
三长老	-7545
不弱的	-7546
不清楚	-7547
不需要	-7548
为之一	-7549
也不好	-7550
也是得	-7551
了许久	-7552
他们都	-7553
但想要	-7554
再没有	-7555
出现过	-7556
努力的	-7557
半空上	-7558
台之上	-7559
叹息着	-7560
响彻着	-7561
在身前	-7562
家族人	-7563
对他的	-7564
小丹塔	-7565
少阁主	-7566
就在那	-7567
怒喝道	-7568
急忙道	-7569
挣扎着	-7570
有几分	-7571
有半点	-7572
材地宝	-7573
极强的	-7574
毒龙兽	-7575
比以前	-7576
流势力	-7577
然后再	-7578
的美丽	-7579
的那份	-7580
眉宇间	-7581
破宗丹	-7582
罕见的	-7583
老人家	-7584
能够让	-7585
让你们	-7586
谨慎的	-7587
过来了	-7588
还是先	-7589
这两年	-7590
这也是	-7591
锁定着	-7592
雷罡火	-7593
一声厉喝	-7594
一种异火	-7595
不了多久	-7596
便是将会	-7597
关键时刻	-7598
冰灵寒泉	-7599
在其面前	-7600
拍了拍手	-7601
爆发而起	-7602
爆裂开来	-7603
直接对着	-7604
直接是被	-7605
若有所思	-7606
视线之内	-7607
这样一来	-7608
进入天墓	-7609
那道身影	-7610
面色有些	-7611
就是不知道	-7612
干枯的手掌	-7613
恐怖的温度	-7614
汇聚在一起	-7615
的能量涟漪	-7616
而与此同时	-7617
若非是因为	-7618
药老的声音	-7619
萧炎微笑道	-7620
▁望着萧炎那	-7621
他能够感觉到	-7622
瞥了萧炎一眼	-7623
萧炎忍不住的	-7624
』”	-7625
一夜	-7626
一滞	-7627
万年	-7628
不经	-7629
五色	-7630
交情	-7631
他要	-7632
体表	-7633
便已	-7634
倾斜	-7635
储存	-7636
化形	-7637
反弹	-7638
变强	-7639
可怜	-7640
吞吞	-7641
大喜	-7642
大天	-7643
就欲	-7644
山坡	-7645
得太	-7646
心悸	-7647
忍着	-7648
搜索	-7649
教训	-7650
斗之	-7651
歇息	-7652
每一	-7653
毛骨	-7654
淡蓝	-7655
烦躁	-7656
狼王	-7657
生灵	-7658
白影	-7659
着嘴	-7660
色泽	-7661
荣耀	-7662
落雁	-7663
薄的	-7664
褪去	-7665
观察	-7666
起伏	-7667
输入	-7668
追求	-7669
重剑	-7670
陨石	-7671
高层	-7672
魂婴	-7673
不由的	-7674
了一瞬	-7675
产生的	-7676
从对方	-7677
众多的	-7678
出手的	-7679
功法的	-7680
却是不	-7681
唯一的	-7682
在自己	-7683
外面的	-7684
大眼睛	-7685
头顶上	-7686
对我们	-7687
我二人	-7688
我魂族	-7689
所以说	-7690
打起来	-7691
方势力	-7692
是一位	-7693
本就是	-7694
毛骨悚	-7695
消失了	-7696
的一丝	-7697
的众人	-7698
的青衣	-7699
看了看	-7700
眼眸中	-7701
而且最	-7702
而这些	-7703
能量核	-7704
脚步声	-7705
若是你	-7706
视眈眈	-7707
还没有	-7708
▁安静的	-7709
一道足有	-7710
低沉的道	-7711
你这家伙	-7712
倒是有些	-7713
另外一个	-7714
大殿之中	-7715
愣了下来	-7716
无疑将会	-7717
沉吟之色	-7718
炼药宗师	-7719
然后将之	-7720
略作沉吟	-7721
的盯着那	-7722
的老家伙	-7723
石台上的	-7724
竟然也是	-7725
缓缓睁开	-7726
老不死的	-7727
能量风暴	-7728
蓝衣青年	-7729
薰儿等人	-7730
说了一声	-7731
身体之内	-7732
这般地步	-7733
造成什么	-7734
雷霆之力	-7735
风雷之力	-7736
默默点头	-7737
▁没有理会	-7738
举手投足间	-7739
九龙雷罡火	-7740
摸了摸鼻子	-7741
的能量风暴	-7742
萧炎也只得	-7743
血战佣兵团	-7744
双手负于身后	-7745
塔戈尔大沙漠	-7746
轻吸了一口凉气	-7747
......”’	-7748
▁三	-7749
▁冰	-7750
一凝	-7751
不俗	-7752
不开	-7753
丛林	-7754
严格	-7755
之极	-7756
人手	-7757
他可	-7758
低吼	-7759
偶然	-7760
几步	-7761
凶光	-7762
初步	-7763
利润	-7764
到这	-7765
动弹	-7766
区区	-7767
十二	-7768
去吧	-7769
变色	-7770
可别	-7771
嗡嗡	-7772
四章	-7773
堪比	-7774
学姐	-7775
定会	-7776
客厅	-7777
平稳	-7778
我可	-7779
抛弃	-7780
拖住	-7781
挥霍	-7782
教导	-7783
星空	-7784
昨天	-7785
是从	-7786
来人	-7787
果实	-7788
止住	-7789
看完	-7790
瞧着	-7791
精芒	-7792
纯粹	-7793
而为	-7794
脱手	-7795
落幕	-7796
螺旋	-7797
袖子	-7798
评价	-7799
诞生	-7800
赞叹	-7801
边境	-7802
进展	-7803
道路	-7804
遭惹	-7805
都未	-7806
阅读	-7807
阵型	-7808
险的	-7809
震散	-7810
霸主	-7811
骨的	-7812
鸦雀	-7813
▁脚掌	-7814
上面的	-7815
之中所	-7816
了半晌	-7817
令得其	-7818
但至少	-7819
倒的确	-7820
先前所	-7821
可至少	-7822
告诉你	-7823
哗啦啦	-7824
在这股	-7825
大门处	-7826
手指上	-7827
旋即道	-7828
明知道	-7829
森然的	-7830
狠狠砸	-7831
的漆黑	-7832
突破了	-7833
聚气散	-7834
背负着	-7835
自动的	-7836
苍狼王	-7837
说着话	-7838
赫然是	-7839
还能够	-7840
▁此时的	-7841
从未见过	-7842
伸出手来	-7843
体内涌出	-7844
便是将之	-7845
分钟左右	-7846
即便是以	-7847
咻的一声	-7848
在萧炎那	-7849
地面上的	-7850
巨石之上	-7851
带着几分	-7852
微微摇头	-7853
惊涛骇浪	-7854
想要将之	-7855
或许能够	-7856
时不时的	-7857
有些诧异	-7858
有着什么	-7859
没有多少	-7860
注视之下	-7861
消散而去	-7862
灰衣老妪	-7863
灰袍老者	-7864
然后目光	-7865
然而如今	-7866
熊熊燃烧	-7867
爆炸开来	-7868
的灵魂体	-7869
缓缓紧握	-7870
耳边响起	-7871
脸色都是	-7872
虎视眈眈	-7873
透着许些	-7874
顺着声音	-7875
魔兽干尸	-7876
鸦雀无声	-7877
▁而伴随着	-7878
▁萧炎一笑	-7879
不知不觉间	-7880
四品炼药师	-7881
天境大圆满	-7882
小医仙也是	-7883
凄厉的惨叫声	-7884
萧炎心头也是	-7885
萧炎脸色也是	-7886
?“	-7887
三章	-7888
不乏	-7889
不妙	-7890
之举	-7891
于此	-7892
人员	-7893
催动	-7894
先行	-7895
击退	-7896
十丈	-7897
印象	-7898
古井	-7899
名叫	-7900
名的	-7901
嘻嘻	-7902
四下	-7903
坑洞	-7904
多人	-7905
大树	-7906
大步	-7907
天灵	-7908
奔腾	-7909
姿势	-7910
容纳	-7911
对撞	-7912
将她	-7913
强盛	-7914
很快	-7915
心寒	-7916
所发	-7917
护体	-7918
抿嘴	-7919
拥挤	-7920
挥出	-7921
掉头	-7922
插进	-7923
攀升	-7924
斑驳	-7925
旁人	-7926
显露	-7927
有余	-7928
权利	-7929
欺负	-7930
残酷	-7931
泥土	-7932
涌盛	-7933
点在	-7934
用的	-7935
相仿	-7936
睫毛	-7937
石塔	-7938
石族	-7939
答案	-7940
纤指	-7941
职业	-7942
英俊	-7943
血芒	-7944
衣服	-7945
被这	-7946
说说	-7947
货色	-7948
踉跄	-7949
躲在	-7950
这具	-7951
连退	-7952
遇到	-7953
面临	-7954
顿了	-7955
飙升	-7956
骇人	-7957
三年前	-7958
上前来	-7959
之下的	-7960
交给你	-7961
他虽然	-7962
但最后	-7963
冷笑声	-7964
又不是	-7965
同等级	-7966
在那种	-7967
大天尊	-7968
容不得	-7969
尖叫声	-7970
山洞中	-7971
所充斥	-7972
手掌轻	-7973
方才能	-7974
无形的	-7975
有兴趣	-7976
点点头	-7977
王八蛋	-7978
的一切	-7979
的等级	-7980
的黑炎	-7981
翻腾的	-7982
若是真	-7983
融合了	-7984
行了一	-7985
过一次	-7986
这丹药	-7987
这般大	-7988
这萧炎	-7989
造化掌	-7990
阴阳玄	-7991
七品中级	-7992
不过萧炎	-7993
你这小子	-7994
凝重的道	-7995
化为灰烬	-7996
半年时间	-7997
却是猛的	-7998
多了一分	-7999
实力暴涨	-8000
急忙后退	-8001
挑起一抹	-8002
旋即似是	-8003
曜老先生	-8004
最后一个	-8005
现在的你	-8006
珍稀药材	-8007
的年轻人	-8008
目光一扫	-8009
磅礴气势	-8010
空间波动	-8011
突然出现	-8012
绝大部分	-8013
让的萧炎	-8014
足以让得	-8015
都是难以	-8016
分钟的时间	-8017
萧炎的肩膀	-8018
深吐了一口气	-8019
的火属性能量	-8020
眉头微微一皱	-8021
自然是不可能	-8022
以他如今的实力	-8023
肉眼可见的速度	-8024
。"	-8025
一抬	-8026
七百	-8027
两枚	-8028
为你	-8029
今年	-8030
他地	-8031
偏向	-8032
先去	-8033
刚落	-8034
制作	-8035
十七	-8036
去的	-8037
号召	-8038
向后	-8039
呼呼	-8040
围绕	-8041
大片	-8042
天下	-8043
带路	-8044
建议	-8045
归来	-8046
往日	-8047
得起	-8048
微弱	-8049
心境	-8050
惊动	-8051
我去	-8052
房屋	-8053
抹了	-8054
持之	-8055
接到	-8056
族内	-8057
明了	-8058
是由	-8059
景象	-8060
更为	-8061
杰出	-8062
湖面	-8063
火网	-8064
的怒	-8065
的玉	-8066
的白	-8067
相隔	-8068
眼珠	-8069
移开	-8070
第四	-8071
紧迫	-8072
自嘲	-8073
莲步	-8074
血莲	-8075
认出	-8076
语罢	-8077
责任	-8078
跃下	-8079
跟你	-8080
躬身	-8081
近身	-8082
这头	-8083
这届	-8084
通红	-8085
重创	-8086
金雁	-8087
隔空	-8088
霜子	-8089
面容	-8090
颇感	-8091
高兴	-8092
黑气	-8093
黑点	-8094
黯然	-8095
鼎炉	-8096
龙丹	-8097
?,’	-8098
▁一拳	-8099
一下子	-8100
他竟然	-8101
以上的	-8102
似乎也	-8103
似乎还	-8104
你不要	-8105
偶尔间	-8106
出一个	-8107
前方的	-8108
力量的	-8109
在众人	-8110
在其上	-8111
场中那	-8112
大殿中	-8113
岩浆柱	-8114
建筑物	-8115
怀中的	-8116
总归是	-8117
我不会	-8118
房间内	-8119
最重要	-8120
注意力	-8121
的关系	-8122
的小脸	-8123
空间的	-8124
绝不会	-8125
绝对的	-8126
若是他	-8127
解释道	-8128
转向了	-8129
这内院	-8130
这是我	-8131
进行着	-8132
迫不及	-8133
邙天尺	-8134
都难以	-8135
飞而去	-8136
▁风尊者	-8137
也不理会	-8138
伸了一个	-8139
便是猛的	-8140
却是极为	-8141
在场的人	-8142
塞进嘴中	-8143
好半晌后	-8144
如果不是	-8145
如此的话	-8146
延伸而出	-8147
形成一个	-8148
斗宗巅峰	-8149
无数人的	-8150
最后一步	-8151
有着一分	-8152
灵魂印记	-8153
玉石骨翼	-8154
真不知道	-8155
短短不到	-8156
缓缓旋转	-8157
缓缓闭上	-8158
脸色大变	-8159
谁都知道	-8160
身形一颤	-8161
这个层次	-8162
这种级别	-8163
都不知道	-8164
▁不过虽然	-8165
▁纳兰嫣然	-8166
一道道身影	-8167
周围的那些	-8168
天蝎毒龙兽	-8169
微眯着眼睛	-8170
极为庞大的	-8171
瞥了他一眼	-8172
米特尔腾山	-8173
萧炎的身形	-8174
萧鼎与萧厉	-8175
阴阳玄龙丹	-8176
的叹了一口气	-8177
互相对视了一眼	-8178
脸庞上浮现一抹	-8179
萧炎眼中也是掠过一抹	-8180
一袭	-8181
万丈	-8182
上百	-8183
不愿	-8184
丹轩	-8185
举行	-8186
事的	-8187
优势	-8188
余波	-8189
佩服	-8190
允许	-8191
入口	-8192
八章	-8193
六章	-8194
军队	-8195
分辩	-8196
前踏	-8197
剑罡	-8198
剩下	-8199
吞进	-8200
听的	-8201
嘭嘭	-8202
嘱咐	-8203
场内	-8204
如释	-8205
存活	-8206
巨剑	-8207
彩色	-8208
愚蠢	-8209
所铸	-8210
掉了	-8211
掌管	-8212
收了	-8213
放于	-8214
是被	-8215
智慧	-8216
暴躁	-8217
暴雨	-8218
有一	-8219
有心	-8220
杀我	-8221
极淡	-8222
活力	-8223
溜溜	-8224
灼热	-8225
牵制	-8226
的吧	-8227
绸缎	-8228
绽放	-8229
绿芒	-8230
缺少	-8231
考虑	-8232
考验	-8233
肖炎	-8234
药坊	-8235
蛇尾	-8236
血气	-8237
要害	-8238
要比	-8239
见的	-8240
追上	-8241
逃生	-8242
镇定	-8243
阴晴	-8244
驱毒	-8245
乃至于	-8246
今日便	-8247
他们在	-8248
凝视着	-8249
凶悍的	-8250
出声道	-8251
只是想	-8252
喷而出	-8253
奥巴帕	-8254
将近百	-8255
得如此	-8256
想办法	-8257
慵懒的	-8258
所包裹	-8259
手掌的	-8260
旋即其	-8261
柔声道	-8262
正是那	-8263
淡淡地	-8264
点什么	-8265
的响起	-8266
的封印	-8267
的广场	-8268
的淡淡	-8269
的阳光	-8270
而后者	-8271
而那些	-8272
萧门主	-8273
被他们	-8274
足以和	-8275
跟我来	-8276
这种人	-8277
顿了顿	-8278
▁听得那	-8279
▁海波东	-8280
▁玄空子	-8281
▁突然间	-8282
也是颇为	-8283
人的实力	-8284
从天而降	-8285
倒是显得	-8286
再度变得	-8287
却是猛然	-8288
却是骤然	-8289
厄难毒女	-8290
又是一道	-8291
声音嘶哑	-8292
如释重负	-8293
宝山老人	-8294
察觉到了	-8295
恶狠狠的	-8296
想要得到	-8297
成人仪式	-8298
手掌轻轻	-8299
抵御而下	-8300
整个身体	-8301
最后一次	-8302
果然不是	-8303
的能量罩	-8304
真的能够	-8305
若是放在	-8306
萧炎突然	-8307
这样下去	-8308
迫不及待	-8309
透着一股	-8310
阴晴不定	-8311
青红血液	-8312
▁喝声落下	-8313
▁望着那些	-8314
▁萧炎等人	-8315
也仅仅只是	-8316
似乎并没有	-8317
冷哼了一声	-8318
大天造化掌	-8319
拳头大小的	-8320
散发而出的	-8321
能够感觉到	-8322
萧炎轻声道	-8323
融合在一起	-8324
顿时爆发出	-8325
萧炎面色也是	-8326
缓缓的点了点头	-8327
萧炎无奈的摇了摇头	-8328
一抓	-8329
不怕	-8330
不言	-8331
为此	-8332
争斗	-8333
五个	-8334
五指	-8335
从他	-8336
你若	-8337
佼佼	-8338
俏皮	-8339
光茧	-8340
凝视	-8341
划起	-8342
到来	-8343
发抖	-8344
古籍	-8345
同为	-8346
同辈	-8347
吸扯	-8348
因故	-8349
圆形	-8350
城的	-8351
失笑	-8352
展动	-8353
已然	-8354
带领	-8355
幅度	-8356
干脆	-8357
开战	-8358
快捷	-8359
惨重	-8360
懒懒	-8361
战士	-8362
手机	-8363
执法	-8364
扩张	-8365
拉拢	-8366
挣脱	-8367
数倍	-8368
无果	-8369
明明	-8370
是啊	-8371
暴戾	-8372
桌子	-8373
此举	-8374
沼泽	-8375
清理	-8376
温热	-8377
满了	-8378
火爆	-8379
灰褐	-8380
炉火	-8381
玄奥	-8382
生存	-8383
用力	-8384
疯子	-8385
白家	-8386
的两	-8387
看那	-8388
眩晕	-8389
眼波	-8390
瞩目	-8391
石像	-8392
石壁	-8393
第七	-8394
耽搁	-8395
能在	-8396
血光	-8397
谁敢	-8398
过分	-8399
这所	-8400
银袍	-8401
长长	-8402
一直在	-8403
上一些	-8404
不动的	-8405
也只有	-8406
了几声	-8407
了许些	-8408
交过手	-8409
从他们	-8410
似乎在	-8411
低下头	-8412
你不是	-8413
倒还好	-8414
冲进了	-8415
十几米	-8416
后遗症	-8417
呼吸间	-8418
大陆的	-8419
好多年	-8420
安慰道	-8421
完全全	-8422
小脸上	-8423
尚还有	-8424
干笑道	-8425
并未有	-8426
恐怕他	-8427
我相信	-8428
投向了	-8429
接近了	-8430
的他们	-8431
的众多	-8432
的前提	-8433
的大门	-8434
的族长	-8435
的老生	-8436
的青丝	-8437
的面庞	-8438
眼花缭	-8439
着什么	-8440
缭绕着	-8441
而此刻	-8442
而此时	-8443
萧炎是	-8444
达不到	-8445
那一脸	-8446
那一霎	-8447
那里的	-8448
都无法	-8449
魂婴果	-8450
黑湮军	-8451
黑衣人	-8452
一声轻叹	-8453
也是徐徐	-8454
也是越加	-8455
他的对手	-8456
他的意料	-8457
便是带着	-8458
另外一处	-8459
吞噬异火	-8460
天地间的	-8461
完完全全	-8462
并不清楚	-8463
恐怕也就	-8464
悬空而立	-8465
整个内院	-8466
暴冲而去	-8467
有些难以	-8468
望着那张	-8469
浩瀚气息	-8470
眉头也是	-8471
竟然已经	-8472
脚掌一踏	-8473
薰儿也是	-8474
行了一礼	-8475
身体便是	-8476
这片区域	-8477
随着一道	-8478
飞掠而出	-8479
一旁的萧炎	-8480
微眯着眸子	-8481
极为恐怖的	-8482
森白色火焰	-8483
的灵魂波动	-8484
的空间虫洞	-8485
眨了眨眼睛	-8486
隐隐间有着	-8487
震耳欲聋的	-8488
伸了一个懒腰	-8489
萧炎眼中也是	-8490
▁微微点了点头	-8491
萧炎微微点了点头	-8492
#^	-8493
an	-8494
▁火	-8495
三角	-8496
不胜	-8497
不虚	-8498
丹晨	-8499
九彩	-8500
事实	-8501
俏美	-8502
凌空	-8503
击出	-8504
刺激	-8505
劈砍	-8506
加剧	-8507
匍匐	-8508
半分	-8509
又要	-8510
向了	-8511
向那	-8512
吞服	-8513
墨冉	-8514
太强	-8515
好意	-8516
如云	-8517
安稳	-8518
对准	-8519
对轰	-8520
少不	-8521
巨鼎	-8522
常理	-8523
广众	-8524
心机	-8525
急着	-8526
性感	-8527
感情	-8528
暗的	-8529
松开	-8530
树顶	-8531
森罗	-8532
水灵	-8533
清朗	-8534
灵境	-8535
炸弹	-8536
牵引	-8537
的不	-8538
着他	-8539
硬接	-8540
稀薄	-8541
紊乱	-8542
花朵	-8543
花锦	-8544
药典	-8545
药香	-8546
蛟兽	-8547
观看	-8548
赫赫	-8549
路人	-8550
轻喝	-8551
较之	-8552
都有	-8553
野兽	-8554
量的	-8555
院中	-8556
随口	-8557
雕像	-8558
顿住	-8559
飞猛	-8560
!”,	-8561
#^^	-8562
▁云韵	-8563
▁心头	-8564
▁灵魂	-8565
▁视线	-8566
与柳擎	-8567
与琥嘉	-8568
了一枚	-8569
了进来	-8570
他同样	-8571
会如此	-8572
但可惜	-8573
候老怪	-8574
光芒的	-8575
其周身	-8576
别人的	-8577
可毕竟	-8578
在古族	-8579
坐落在	-8580
声响中	-8581
天灵盖	-8582
好奇的	-8583
小玉瓶	-8584
巨石上	-8585
当初的	-8586
我所知	-8587
我需要	-8588
所形成	-8589
打了个	-8590
把玩着	-8591
拼命的	-8592
株药材	-8593
的下场	-8594
的办法	-8595
的战圈	-8596
的这般	-8597
真是个	-8598
笑容的	-8599
紧了紧	-8600
细细的	-8601
而若是	-8602
若是在	-8603
行走在	-8604
说话间	-8605
转瞬间	-8606
还是得	-8607
逊色于	-8608
那神秘	-8609
都必须	-8610
▁如今的	-8611
▁美杜莎	-8612
一声冷喝	-8613
伸出手掌	-8614
六星斗尊	-8615
半圣傀儡	-8616
吞噬之力	-8617
地面之上	-8618
天际之边	-8619
头皮发麻	-8620
幽海蛟兽	-8621
应该能够	-8622
张了张嘴	-8623
很少有人	-8624
微微一沉	-8625
惊天动地	-8626
手指轻轻	-8627
旋即化为	-8628
最后尽数	-8629
猛然一握	-8630
白衣女子	-8631
的情况下	-8632
目光却是	-8633
破风声响	-8634
竟然还有	-8635
笑眯眯的	-8636
萧炎拳头	-8637
闪掠而去	-8638
闪过一道	-8639
▁对于这些	-8640
前方不远处	-8641
消失的地方	-8642
狠狠的砸在	-8643
生骨融血丹	-8644
这片天地间	-8645
宛如实质般的	-8646
数百丈庞大的	-8647
▁听得萧炎此话	-8648
自体内暴涌而出	-8649
▁突如其来的变故	-8650
一尊	-8651
一扭	-8652
一时	-8653
一轮	-8654
上所	-8655
不容	-8656
不短	-8657
中间	-8658
久了	-8659
之约	-8660
九章	-8661
亡魂	-8662
以她	-8663
偏偏	-8664
光头	-8665
再也	-8666
再无	-8667
区别	-8668
半寸	-8669
叔叔	-8670
吹拂	-8671
喘着	-8672
四品	-8673
四百	-8674
四翼	-8675
回归	-8676
多玛	-8677
大声	-8678
大庭	-8679
奇特	-8680
好戏	-8681
家之	-8682
巡逻	-8683
工作	-8684
席上	-8685
平息	-8686
形象	-8687
心底	-8688
心念	-8689
快了	-8690
惊醒	-8691
拿起	-8692
掀开	-8693
排除	-8694
携带	-8695
摇摆	-8696
更高	-8697
本宗	-8698
本钱	-8699
核心	-8700
毁了	-8701
浊气	-8702
浓雾	-8703
涌入	-8704
湿润	-8705
焰分	-8706
熏烤	-8707
猛地	-8708
猩红	-8709
玄衣	-8710
眼红	-8711
瞧瞧	-8712
破绽	-8713
神智	-8714
精光	-8715
给她	-8716
胆颤	-8717
能将	-8718
莽撞	-8719
落个	-8720
蜘蛛	-8721
血丝	-8722
认输	-8723
趁机	-8724
踌躇	-8725
连我	-8726
连连	-8727
通往	-8728
那群	-8729
那老	-8730
难缠	-8731
雷族	-8732
雷欧	-8733
震裂	-8734
高人	-8735
鲁莽	-8736
龙鳞	-8737
从怀中	-8738
传进了	-8739
倒也不	-8740
其余的	-8741
凰血精	-8742
千药坊	-8743
双眸中	-8744
发老者	-8745
可萧炎	-8746
咬银牙	-8747
在一旁	-8748
在手中	-8749
地斗气	-8750
大喝道	-8751
好像是	-8752
完成了	-8753
居然连	-8754
已经在	-8755
彼此间	-8756
得这般	-8757
惊愕的	-8758
我所料	-8759
手印的	-8760
打量着	-8761
掌心处	-8762
新生的	-8763
无奈地	-8764
是属于	-8765
炼药系	-8766
猩红的	-8767
的小子	-8768
的情报	-8769
目的地	-8770
着一些	-8771
着柳眉	-8772
突飞猛	-8773
笑问道	-8774
缭绕的	-8775
而下的	-8776
能量网	-8777
自体内	-8778
见到了	-8779
这一切	-8780
这三个	-8781
这几日	-8782
这模样	-8783
迟早会	-8784
那火焰	-8785
那般的	-8786
那领头	-8787
那黑色	-8788
都会被	-8789
金雁宗	-8790
阴沉的	-8791
骇然的	-8792
一股寒意	-8793
一股无形	-8794
不差的话	-8795
不约而同	-8796
五星斗圣	-8797
便是会被	-8798
倒射而出	-8799
先前的那	-8800
其他势力	-8801
凶悍无匹	-8802
出现什么	-8803
喃喃自语	-8804
噬金鼠族	-8805
四种异火	-8806
在那众多	-8807
声音之中	-8808
嫣然笑道	-8809
完毕之后	-8810
小医仙那	-8811
并未持续	-8812
心头都是	-8813
恐怕也是	-8814
手掌一招	-8815
斗宗层次	-8816
旋即有些	-8817
旋即眼中	-8818
最后犹如	-8819
气旋之内	-8820
注视着那	-8821
火云老祖	-8822
炽热温度	-8823
的黑角域	-8824
第三更到	-8825
绝对不能	-8826
能够得到	-8827
脸色一变	-8828
般的感觉	-8829
这片天际	-8830
风雷阁的	-8831
五品炼药师	-8832
以他的实力	-8833
出现了一些	-8834
回加玛帝国	-8835
然后缓缓的	-8836
的灵魂之力	-8837
萧炎目光在	-8838
足够的时间	-8839
青莲的心火	-8840
便是闪现而出	-8841
森白色的火焰	-8842
的美杜莎女王	-8843
终于是逐渐的	-8844
目光死死的盯着	-8845
萧炎迟疑了一下	-8846
这才松了一口气	-8847
默默的点了点头	-8848
-”	-8849
▁青	-8850
。)	-8851
一举	-8852
一日	-8853
七幻	-8854
不提	-8855
中域	-8856
之际	-8857
也该	-8858
交出	-8859
以此	-8860
伤口	-8861
体形	-8862
修罗	-8863
倔强	-8864
做得	-8865
共同	-8866
分别	-8867
刺痛	-8868
助力	-8869
十道	-8870
半丈	-8871
半月	-8872
厚实	-8873
取过	-8874
叫道	-8875
含糊	-8876
嘶嘶	-8877
噬浪	-8878
在将	-8879
外出	-8880
女儿	-8881
好受	-8882
娇嫩	-8883
子火	-8884
局势	-8885
布置	-8886
悠闲	-8887
惊艳	-8888
想走	-8889
扫描	-8890
抓紧	-8891
拉朽	-8892
指甲	-8893
捧着	-8894
控火	-8895
敏感	-8896
无谓	-8897
暗叹	-8898
更浓	-8899
最低	-8900
来我	-8901
没错	-8902
洋洋	-8903
温凉	-8904
湖水	-8905
理由	-8906
的下	-8907
直至	-8908
脆弱	-8909
自傲	-8910
苦头	-8911
落空	-8912
薛崩	-8913
藏百	-8914
虽强	-8915
蜕变	-8916
行下	-8917
衣裙	-8918
要不	-8919
议事	-8920
象征	-8921
资料	-8922
越是	-8923
路途	-8924
踏进	-8925
转化	-8926
轻抬	-8927
那火	-8928
重新	-8929
长袍	-8930
隐瞒	-8931
顺便	-8932
顿下	-8933
骚乱	-8934
▁接过	-8935
▁远处	-8936
一句话	-8937
下杀手	-8938
不敢再	-8939
不用再	-8940
不管你	-8941
与吴昊	-8942
为中心	-8943
也有着	-8944
也正如	-8945
了不起	-8946
他还是	-8947
何等的	-8948
你知道	-8949
佼佼者	-8950
兴奋的	-8951
其余人	-8952
分之一	-8953
到萧炎	-8954
动身吧	-8955
号召力	-8956
回来的	-8957
在即将	-8958
她心中	-8959
并不太	-8960
怎么会	-8961
意外的	-8962
成一个	-8963
所覆盖	-8964
摇着头	-8965
枯拉朽	-8966
每一处	-8967
比萧炎	-8968
的一块	-8969
的价格	-8970
的俏脸	-8971
的眼睛	-8972
目光环	-8973
着黛眉	-8974
突然从	-8975
第二层	-8976
而且在	-8977
落雁天	-8978
虽然是	-8979
蜘蛛网	-8980
诱人的	-8981
还只是	-8982
这般说	-8983
这里面	-8984
青灵涎	-8985
黑暗的	-8986
”...	-8987
▁第七百	-8988
不少强者	-8989
两个小时	-8990
似乎是在	-8991
便是将那	-8992
几位长老	-8993
划过一抹	-8994
勾起一抹	-8995
双翼一振	-8996
变得极为	-8997
古凰血精	-8998
大庭广众	-8999
头顶之上	-9000
嫣然一笑	-9001
当年那个	-9002
所造成的	-9003
据我所知	-9004
斗王级别	-9005
未曾想到	-9006
殷红鲜血	-9007
毫无保留	-9008
毫无预兆	-9009
炼制出来	-9010
焰分噬浪	-9011
爆炸声响	-9012
甚至于连	-9013
盘膝而坐	-9014
碧绿色的	-9015
紧随而上	-9016
缓步而出	-9017
脸色有些	-9018
药老等人	-9019
萧炎冲着	-9020
还真以为	-9021
这位朋友	-9022
▁瞧得萧炎	-9023
七幻青灵涎	-9024
五轮离火法	-9025
因为他发现	-9026
有着淡淡的	-9027
的血脉之力	-9028
第一次看见	-9029
紫褐色火焰	-9030
药老笑了笑	-9031
萧炎缓缓的	-9032
一口鲜血喷出	-9033
对于他们来说	-9034
然后目光转向	-9035
看了萧炎一眼	-9036
终于是忍不住的	-9037
拍了拍萧炎的肩膀	-9038
hu	-9039
▁"	-9040
▁他	-9041
一干	-9042
七阶	-9043
万分	-9044
不易	-9045
严实	-9046
云督	-9047
仇恨	-9048
介意	-9049
从没	-9050
何事	-9051
倒射	-9052
光彩	-9053
冒出	-9054
冰鹤	-9055
出生	-9056
分外	-9057
分神	-9058
卧虎	-9059
囚牢	-9060
围剿	-9061
在前	-9062
大汗	-9063
天涯	-9064
失态	-9065
威严	-9066
寻到	-9067
尊老	-9068
干涩	-9069
平常	-9070
弥补	-9071
弩张	-9072
得了	-9073
我有	-9074
战胜	-9075
手笔	-9076
扬扬	-9077
把我	-9078
持久	-9079
持会	-9080
掠下	-9081
插在	-9082
整洁	-9083
方法	-9084
是个	-9085
服下	-9086
木家	-9087
杂质	-9088
束手	-9089
来路	-9090
林间	-9091
沸沸	-9092
流水	-9093
淡青	-9094
狡诈	-9095
百里	-9096
的气	-9097
看在	-9098
空荡	-9099
笑话	-9100
纳灵	-9101
罗成	-9102
翅膀	-9103
色彩	-9104
蛮荒	-9105
解散	-9106
质疑	-9107
跑了	-9108
跟随	-9109
身穿	-9110
通天	-9111
钟乳	-9112
门的	-9113
间隔	-9114
防备	-9115
顿在	-9116
颓丧	-9117
风险	-9118
黄衣	-9119
,“”	-9120
▁““	-9121
▁如此	-9122
▁待得	-9123
▁漆黑	-9124
一群人	-9125
上门来	-9126
不必要	-9127
不论是	-9128
也唯有	-9129
你体内	-9130
你认为	-9131
其中所	-9132
其身旁	-9133
冷笑着	-9134
刚开始	-9135
副院长	-9136
在两人	-9137
在见到	-9138
在距离	-9139
地能量	-9140
射来的	-9141
就这样	-9142
开始吧	-9143
强横的	-9144
很不错	-9145
恐怖了	-9146
想要从	-9147
成粉末	-9148
所察觉	-9149
执法队	-9150
抹了把	-9151
拔弩张	-9152
掠而去	-9153
掺杂着	-9154
撇嘴道	-9155
敲打着	-9156
消失的	-9157
的地面	-9158
的所有	-9159
的杀意	-9160
的话音	-9161
的韩枫	-9162
盘坐于	-9163
紫色的	-9164
纳兰家	-9165
缓缓从	-9166
落下地	-9167
表面的	-9168
见到的	-9169
谢谢了	-9170
足够的	-9171
这三人	-9172
这个小	-9173
这句话	-9174
一枚丹药	-9175
一般说来	-9176
不过如今	-9177
两位长老	-9178
中年大汉	-9179
也不得不	-9180
他也知道	-9181
他们便是	-9182
但他却是	-9183
但却依旧	-9184
便是率先	-9185
八星斗宗	-9186
半空中的	-9187
在顷刻间	-9188
已经彻底	-9189
径直对着	-9190
微微抬头	-9191
微微皱眉	-9192
恐怕还真	-9193
战斗经验	-9194
摧枯拉朽	-9195
收入眼中	-9196
晋入斗帝	-9197
模糊身影	-9198
清楚不过	-9199
看着萧炎	-9200
空荡荡的	-9201
缓缓响起	-9202
缓缓抬头	-9203
脸色瞬间	-9204
莫名其妙	-9205
虽然有些	-9206
袖袍中的	-9207
视线尽头	-9208
身形暴退	-9209
还来不及	-9210
远古八族	-9211
远古天蛇	-9212
都是感到	-9213
长时间的	-9214
风暴一般	-9215
黑雾之中	-9216
黛眉微蹙	-9217
▁天火尊者	-9218
▁灵魂力量	-9219
一股淡淡的	-9220
中回过神来	-9221
了一段距离	-9222
令得不少人	-9223
出现了许些	-9224
庞大的身体	-9225
扭曲了起来	-9226
斗宗强者的	-9227
沉吟了一下	-9228
沉默了一会	-9229
滚动了一下	-9230
焰分噬浪尺	-9231
的空间波动	-9232
碰撞在一起	-9233
自己的实力	-9234
萧炎在心中	-9235
虚无的空间	-9236
身体之上的	-9237
迎面而来的	-9238
一名斗皇强者	-9239
也是掠过一抹	-9240
出现在了萧炎	-9241
略微松了一口气	-9242
萧炎笑着点了点头	-9243
之主	-9244
他便	-9245
你与	-9246
例外	-9247
便欲	-9248
倒还	-9249
冲杀	-9250
况且	-9251
凹槽	-9252
刚动	-9253
十米	-9254
双指	-9255
吸取	-9256
喷涌	-9257
嘴上	-9258
在乎	-9259
大为	-9260
小事	-9261
幸运	-9262
幽泉	-9263
幽静	-9264
开辟	-9265
当他	-9266
往的	-9267
心疼	-9268
所需	-9269
手腕	-9270
打通	-9271
抓捕	-9272
拉住	-9273
挑选	-9274
掺和	-9275
提前	-9276
敌意	-9277
曼妙	-9278
林朽	-9279
柳家	-9280
横扫	-9281
死吧	-9282
池水	-9283
涌来	-9284
深涧	-9285
溢流	-9286
滑稽	-9287
焦急	-9288
玄黄	-9289
玉牌	-9290
电芒	-9291
皱起	-9292
着小	-9293
第十	-9294
箭支	-9295
索索	-9296
累积	-9297
自那	-9298
良久	-9299
血洗	-9300
观众	-9301
边的	-9302
连接	-9303
逃命	-9304
逃离	-9305
逼得	-9306
那处	-9307
阎老	-9308
难寻	-9309
雄厚	-9310
雾水	-9311
飞跃	-9312
黄儿	-9313
黄易	-9314
黑白	-9315
▁嘴角	-9316
▁在将	-9317
▁如今	-9318
▁脸庞	-9319
一想到	-9320
使用了	-9321
便是如	-9322
倍不止	-9323
击打在	-9324
分明的	-9325
动也不	-9326
化为了	-9327
回想起	-9328
天霜子	-9329
将身体	-9330
小心的	-9331
少年的	-9332
山人海	-9333
山脉的	-9334
布满了	-9335
床榻上	-9336
怒声道	-9337
怪笑道	-9338
斜靠着	-9339
时间了	-9340
普通的	-9341
暂时的	-9342
有兴致	-9343
爆发的	-9344
留下的	-9345
的一个	-9346
的一拳	-9347
的范围	-9348
的队伍	-9349
看来是	-9350
着眼眸	-9351
空间中	-9352
绝对会	-9353
而有所	-9354
肩膀上	-9355
让我来	-9356
说实在	-9357
赤红的	-9358
跳动着	-9359
那么这	-9360
青莲座	-9361
风清儿	-9362
鸣之声	-9363
龙卧虎	-9364
▁...	-9365
一眼望去	-9366
一股异常	-9367
也正因为	-9368
以及一些	-9369
刚刚进入	-9370
剑拔弩张	-9371
加快速度	-9372
因为一些	-9373
因为他们	-9374
因为萧炎	-9375
在乌坦城	-9376
天材地宝	-9377
完全消散	-9378
对着下方	-9379
恐怕至少	-9380
成了一个	-9381
无人能够	-9382
星陨阁的	-9383
是真正的	-9384
暗金色的	-9385
有些不耐	-9386
有着一丝	-9387
沸沸扬扬	-9388
狂喷而出	-9389
略微迟疑	-9390
目光盯着	-9391
眼瞳骤然	-9392
而且由于	-9393
能够算做	-9394
脸色皆是	-9395
话音落下	-9396
说了一句	-9397
迅速变得	-9398
这种层次	-9399
这般速度	-9400
逐渐变得	-9401
面前这个	-9402
▁心中念头	-9403
一道巨大的	-9404
即便是放眼	-9405
可怕的力量	-9406
时间的流逝	-9407
毫不犹豫的	-9408
的纳兰嫣然	-9409
自萧炎体内	-9410
莫名其妙的	-9411
萧炎小兄弟	-9412
远古天魔蟒	-9413
都是拥有着	-9414
声音刚刚落下	-9415
感受到了一种	-9416
有着什么东西	-9417
脚尖一点地面	-9418
虚无空间之中	-9419
在萧炎心中响起	-9420
一翻	-9421
不惧	-9422
不肯	-9423
东部	-9424
两只	-9425
丰厚	-9426
之别	-9427
之情	-9428
也在	-9429
于他	-9430
云帆	-9431
人之	-9432
人头	-9433
份量	-9434
但我	-9435
体的	-9436
你敢	-9437
便将	-9438
克制	-9439
内甲	-9440
凝成	-9441
凝血	-9442
刀疤	-9443
分为	-9444
创伤	-9445
初始	-9446
可得	-9447
可有	-9448
和煦	-9449
回报	-9450
墨巴	-9451
士兵	-9452
复活	-9453
够了	-9454
天魂	-9455
就该	-9456
尺柄	-9457
异兽	-9458
心态	-9459
恨恨	-9460
我没	-9461
所料	-9462
手的	-9463
扭动	-9464
找你	-9465
投给	-9466
招生	-9467
拼死	-9468
提议	-9469
提高	-9470
收取	-9471
放肆	-9472
无波	-9473
明智	-9474
暴刺	-9475
曲卷	-9476
期望	-9477
枪尖	-9478
棱白	-9479
水波	-9480
沙哑	-9481
火候	-9482
炎儿	-9483
独特	-9484
的了	-9485
的娇	-9486
省去	-9487
着手	-9488
研究	-9489
空中	-9490
第六	-9491
粉碎	-9492
纯青	-9493
翻海	-9494
老大	-9495
苦恼	-9496
萧灸	-9497
萧炱	-9498
蛇瞳	-9499
规定	-9500
解除	-9501
调和	-9502
都统	-9503
金黄	-9504
银雷	-9505
长眉	-9506
面貌	-9507
顺眼	-9508
顽固	-9509
高达	-9510
鬼尊	-9511
魂技	-9512
▁当年	-9513
▁有了	-9514
▁有些	-9515
▁韩枫	-9516
不断地	-9517
不管是	-9518
不过她	-9519
丧家之	-9520
也是不	-9521
了一位	-9522
了一旁	-9523
二十多	-9524
传出了	-9525
你竟然	-9526
你难道	-9527
修炼到	-9528
包裹下	-9529
口鲜血	-9530
可不想	-9531
可并不	-9532
城市中	-9533
墨巴斯	-9534
山谷中	-9535
并不大	-9536
慢吞吞	-9537
拱手道	-9538
整齐的	-9539
无所谓	-9540
时间中	-9541
明显的	-9542
明白了	-9543
有本事	-9544
望不见	-9545
本来就	-9546
没问题	-9547
的经脉	-9548
的缓缓	-9549
的萧厉	-9550
的这些	-9551
的那团	-9552
而出现	-9553
药鼎内	-9554
裂而开	-9555
那两名	-9556
那犹如	-9557
银色的	-9558
长老们	-9559
闪现在	-9560
除了那	-9561
隐藏的	-9562
霎时间	-9563
黑煞队	-9564
▁庞大的	-9565
一些长老	-9566
一阵抽搐	-9567
七彩能量	-9568
三年之前	-9569
不过若是	-9570
丧家之犬	-9571
了一道道	-9572
交给我来	-9573
亲自出手	-9574
众人皆是	-9575
众位长老	-9576
依旧还是	-9577
做完这些	-9578
六星斗圣	-9579
其他地方	-9580
出手的话	-9581
却并非是	-9582
可当真是	-9583
可是相当	-9584
嗤的一声	-9585
坐了下来	-9586
坠落而下	-9587
大厅中的	-9588
妖火空间	-9589
始终都是	-9590
就算是他	-9591
并未理会	-9592
应该是在	-9593
微微一振	-9594
微微偏头	-9595
所以萧炎	-9596
手臂之上	-9597
扩散开来	-9598
斗之气的	-9599
望着远处	-9600
此刻却是	-9601
炉火纯青	-9602
然后迅速	-9603
玉瓶之中	-9604
白发男子	-9605
的注视下	-9606
目光四处	-9607
粘稠液体	-9608
脚尖轻点	-9609
舔了舔嘴	-9610
萧炎二人	-9611
诡异消失	-9612
说着话时	-9613
转头对着	-9614
这么一个	-9615
那一道道	-9616
飞行魔兽	-9617
一名炼药师	-9618
一道细微的	-9619
了一段时间	-9620
但萧炎却是	-9621
低沉的声音	-9622
便是缓缓的	-9623
周围的空间	-9624
在黑角域中	-9625
居高临下的	-9626
干咳了一声	-9627
微微笑了笑	-9628
怎么可能会	-9629
暴射而来的	-9630
炼药师袍服	-9631
突然出现的	-9632
萧炎的手掌	-9633
萧炎的气息	-9634
轻声喃喃道	-9635
黑角域之中	-9636
以肉眼可见的速度	-9637
:‘	-9638
一指	-9639
一簇	-9640
三四	-9641
不值	-9642
不准	-9643
不语	-9644
之战	-9645
九天	-9646
了她	-9647
云海	-9648
人形	-9649
他有	-9650
他来	-9651
仰头	-9652
传闻	-9653
作响	-9654
再去	-9655
决战	-9656
凝实	-9657
初期	-9658
到处	-9659
单薄	-9660
取代	-9661
变异	-9662
告知	-9663
咋舌	-9664
四种	-9665
在地	-9666
大惊	-9667
大肆	-9668
天生	-9669
巨门	-9670
异彩	-9671
弯曲	-9672
很久	-9673
微曲	-9674
微缩	-9675
必将	-9676
思索	-9677
怪物	-9678
所得	-9679
折磨	-9680
拉开	-9681
拍买	-9682
招来	-9683
斥道	-9684
是最	-9685
柜台	-9686
柳苍	-9687
步子	-9688
残忍	-9689
毒师	-9690
毕生	-9691
毛头	-9692
沙丘	-9693
没那	-9694
浏览	-9695
浓的	-9696
深黄	-9697
焦虑	-9698
着实	-9699
竖起	-9700
糊涂	-9701
美貌	-9702
翠绿	-9703
而言	-9704
脉络	-9705
见得	-9706
识相	-9707
话来	-9708
话落	-9709
轻移	-9710
这在	-9711
这支	-9712
避免	-9713
都走	-9714
风刃	-9715
飙射	-9716
ian	-9717
▁三人	-9718
▁出了	-9719
▁唐震	-9720
▁广场	-9721
一屁股	-9722
一辈子	-9723
不就是	-9724
两个月	-9725
中扫过	-9726
也不想	-9727
了一跳	-9728
体而出	-9729
你不会	-9730
你已经	-9731
冷冷的	-9732
出一些	-9733
到了那	-9734
到此处	-9735
劈而下	-9736
加起来	-9737
卷卷轴	-9738
在火焰	-9739
在身后	-9740
地声音	-9741
天地的	-9742
当年我	-9743
怎么说	-9744
恢复了	-9745
我看你	-9746
我说过	-9747
爆炸声	-9748
的一抹	-9749
的一片	-9750
的一笑	-9751
的地盘	-9752
的护卫	-9753
的目标	-9754
的确很	-9755
的路线	-9756
的面孔	-9757
看着那	-9758
着一种	-9759
瞬息间	-9760
等人物	-9761
粗壮的	-9762
药尊者	-9763
认出了	-9764
贝齿轻	-9765
还不够	-9766
这两位	-9767
▁借助着	-9768
一股极为	-9769
七彩光芒	-9770
三年之约	-9771
不过由于	-9772
丝毫没有	-9773
两者间的	-9774
也并没有	-9775
也是一笑	-9776
他们都是	-9777
便是瞬间	-9778
凝重之色	-9779
变得异常	-9780
只要能够	-9781
可以想象	-9782
在内院中	-9783
天阶功法	-9784
已经完全	-9785
急速后退	-9786
恐怕都是	-9787
悬浮天际	-9788
手掌一晃	-9789
扭曲起来	-9790
抬了抬眼	-9791
拥有异火	-9792
斗气纱衣	-9793
森罗鬼尊	-9794
死亡气息	-9795
毁灭力量	-9796
毒宗宗主	-9797
然后化为	-9798
犹如一个	-9799
生生的将	-9800
略微沉寂	-9801
白衣男子	-9802
的喃喃道	-9803
目光有些	-9804
知道一些	-9805
究竟有多	-9806
突飞猛进	-9807
紧跟而上	-9808
虽然心中	-9809
袖袍轻挥	-9810
说实在的	-9811
身体犹如	-9812
轻轻一笑	-9813
这个女人	-9814
这位老者	-9815
这是什么	-9816
透着丝丝	-9817
逐渐消散	-9818
通道之中	-9819
那恐怖的	-9820
阴冷的道	-9821
饶有兴致	-9822
黄泉尊者	-9823
▁不过虽说	-9824
不急不缓的	-9825
也是越发的	-9826
从对方眼中	-9827
几个闪烁间	-9828
已经没有了	-9829
惊骇目光中	-9830
毫无保留的	-9831
现在怎么办	-9832
疯狂的对着	-9833
的萧炎身上	-9834
雄浑的斗气	-9835
他自然是知道	-9836
化为一道黑影	-9837
应该便是能够	-9838
望着天空上那	-9839
浮现一抹冷笑	-9840
萧炎心中也是	-9841
萧炎眼眸微眯	-9842
满意的点了点头	-9843
萧炎苦笑了一声	-9844
萧炎深吸了一口气	-9845
8.	-9846
一女	-9847
一的	-9848
不该	-9849
不难	-9850
严狮	-9851
丹家	-9852
之分	-9853
之刻	-9854
之巅	-9855
之阶	-9856
事了	-9857
二章	-9858
于我	-9859
从小	-9860
以上	-9861
传遍	-9862
信号	-9863
做了	-9864
关卡	-9865
冰层	-9866
冰符	-9867
刀锋	-9868
分明	-9869
十个	-9870
协助	-9871
压得	-9872
去哪	-9873
同龄	-9874
名次	-9875
后辈	-9876
哑然	-9877
四星	-9878
失色	-9879
奇宝	-9880
奇效	-9881
奔雷	-9882
娇小	-9883
对立	-9884
尖叫	-9885
差别	-9886
强芒	-9887
得更	-9888
心来	-9889
快走	-9890
怎能	-9891
怒意	-9892
惊哗	-9893
投去	-9894
抿了	-9895
掩藏	-9896
措施	-9897
收到	-9898
收起	-9899
整体	-9900
断的	-9901
新的	-9902
最是	-9903
木辰	-9904
松懈	-9905
树木	-9906
概念	-9907
死伤	-9908
深深	-9909
照顾	-9910
猜到	-9911
生前	-9912
生长	-9913
目不	-9914
紫红	-9915
翌日	-9916
而后	-9917
脚底	-9918
腰间	-9919
若说	-9920
药草	-9921
蒙蒙	-9922
蛇信	-9923
行迹	-9924
袭来	-9925
要将	-9926
读者	-9927
赶去	-9928
轨迹	-9929
这副	-9930
这缕	-9931
道理	-9932
那条	-9933
问话	-9934
阅历	-9935
阴柔	-9936
阴翳	-9937
隐秘	-9938
飞出	-9939
!’,	-9940
▁两道	-9941
▁作为	-9942
▁再度	-9943
▁双手	-9944
▁按照	-9945
三天尊	-9946
下身子	-9947
不知死	-9948
与紫研	-9949
也明白	-9950
也能够	-9951
了整个	-9952
令得那	-9953
以一个	-9954
以你的	-9955
凤小姐	-9956
劲气的	-9957
勉强的	-9958
可没有	-9959
听得这	-9960
唐谷主	-9961
回过头	-9962
在一个	-9963
在那些	-9964
大幅度	-9965
将丹药	-9966
层次的	-9967
己之力	-9968
并不少	-9969
并不难	-9970
悄然而	-9971
情况下	-9972
我萧家	-9973
所取得	-9974
拥有的	-9975
是何种	-9976
最强的	-9977
来到了	-9978
没有再	-9979
点了点	-9980
现在他	-9981
的中心	-9982
的城市	-9983
的趋势	-9984
的道路	-9985
的青红	-9986
看见那	-9987
着自己	-9988
笑声中	-9989
给自己	-9990
缓缓走	-9991
翻海印	-9992
耐不住	-9993
至少是	-9994
莫宗主	-9995
蛮荒决	-9996
融灵丹	-9997
让的他	-9998
谁知道	-9999
超过了	-10000
这一片	-10001
这妮子	-10002
郑重的	-10003
都不能	-10004
隐晦的	-10005
▁当最后	-10006
。。。”	-10007
一股磅礴	-10008
上前一步	-10009
也是猛然	-10010
五天时间	-10011
他第一次	-10012
低头望着	-10013
修炼成功	-10014
偏头望着	-10015
先前萧炎	-10016
内心深处	-10017
冷哼一声	-10018
却是如同	-10019
嘴巴一张	-10020
在其身旁	-10021
头顶上空	-10022
实力强横	-10023
将手中的	-10024
弹射而出	-10025
强者如云	-10026
很多人都	-10027
打了一个	-10028
扫了一眼	-10029
掌心之中	-10030
搓了搓手	-10031
撕裂空间	-10032
斗灵级别	-10033
旋即脸色	-10034
日后若是	-10035
未曾理会	-10036
毛头小子	-10037
浑身上下	-10038
皱了起来	-10039
目光紧紧	-10040
目光缓缓	-10041
看这情况	-10042
睁开眼来	-10043
离开这里	-10044
粉红火焰	-10045
缓缓收敛	-10046
老生队伍	-10047
萧家族人	-10048
萧炎大哥	-10049
这个小子	-10050
那么容易	-10051
那种感觉	-10052
都是不敢	-10053
重重的砸	-10054
铁剑尊者	-10055
顶多只能	-10056
顶尖强者	-10057
飞掠而过	-10058
魂崖二人	-10059
黑色光圈	-10060
一道道残影	-10061
云岚宗宗主	-10062
保持着沉默	-10063
停下了脚步	-10064
出现了一个	-10065
狂暴的能量	-10066
紧握了起来	-10067
能够感受到	-10068
脚掌猛的一	-10069
退后了一步	-10070
重重的撞击	-10071
的青莲地心火	-10072
萧炎淡淡的道	-10073
萧炎也是忍不住的	-10074
萧炎轻吐了一口气	-10075
重重的松了一口气	-10076
.1	-10077
一波	-10078
不变	-10079
不怀	-10080
不的	-10081
不舍	-10082
中了	-10083
中地	-10084
临近	-10085
乳白	-10086
事先	-10087
云集	-10088
份上	-10089
传播	-10090
伤痕	-10091
便由	-10092
傅岩	-10093
冰元	-10094
出动	-10095
刀芒	-10096
分离	-10097
别怪	-10098
力竭	-10099
勾勒	-10100
十具	-10101
千百	-10102
华丽	-10103
可怖	-10104
吃惊	-10105
咽下	-10106
四溅	-10107
夜色	-10108
太阳	-10109
奔跑	-10110
她是	-10111
好啊	-10112
如遭	-10113
婴儿	-10114
宝贵	-10115
尝试	-10116
屠龙	-10117
带上	-10118
引路	-10119
形态	-10120
戈剌	-10121
抓起	-10122
拍在	-10123
拐杖	-10124
掉落	-10125
撕扯	-10126
散开	-10127
时所	-10128
晨辉	-10129
样子	-10130
毒丹	-10131
毛发	-10132
水液	-10133
泄露	-10134
波纹	-10135
浪潮	-10136
消退	-10137
渺小	-10138
火光	-10139
火印	-10140
火的	-10141
灵动	-10142
甘穆	-10143
男女	-10144
白玉	-10145
百多	-10146
的上	-10147
看到	-10148
看重	-10149
矫健	-10150
神效	-10151
稳固	-10152
端倪	-10153
结动	-10154
缩水	-10155
而行	-10156
胸脯	-10157
能让	-10158
腾烧	-10159
自有	-10160
莫要	-10161
蛇鳞	-10162
豪气	-10163
踏空	-10164
那由	-10165
错了	-10166
错落	-10167
长腿	-10168
阴测	-10169
阶段	-10170
附和	-10171
难得	-10172
雷山	-10173
高手	-10174
▁嘴中	-10175
▁手中	-10176
▁萧厉	-10177
▁遥遥	-10178
。%%	-10179
一下吧	-10180
上一抹	-10181
不会有	-10182
不小啊	-10183
个不停	-10184
也难怪	-10185
了一场	-10186
于其中	-10187
什么人	-10188
从其中	-10189
他明白	-10190
你究竟	-10191
倒还是	-10192
冷喝声	-10193
几人的	-10194
出来地	-10195
则正是	-10196
十回合	-10197
嘶鸣声	-10198
器输入	-10199
在后者	-10200
在这么	-10201
大大的	-10202
女孩子	-10203
安然无	-10204
广场的	-10205
忽然从	-10206
所笼罩	-10207
手臂上	-10208
把自己	-10209
是一处	-10210
枚丹药	-10211
树干上	-10212
桌上的	-10213
欢呼声	-10214
然后与	-10215
的动静	-10216
的差距	-10217
的银色	-10218
看来你	-10219
砰砰砰	-10220
第二次	-10221
结结实	-10222
老一辈	-10223
萧玄的	-10224
落下风	-10225
要不是	-10226
请大家	-10227
跺地面	-10228
这一年	-10229
这一手	-10230
通体呈	-10231
遥远处	-10232
遭受到	-10233
那一片	-10234
那本来	-10235
释放出	-10236
长时间	-10237
面之上	-10238
鲜血的	-10239
8.%%	-10240
xian	-10241
一声怒喝	-10242
一道低沉	-10243
七彩小蛇	-10244
不过却是	-10245
中州之上	-10246
也是如同	-10247
也的确是	-10248
二星斗圣	-10249
他们这些	-10250
令得后者	-10251
似乎有些	-10252
倒是并未	-10253
其身旁的	-10254
却依旧是	-10255
只要你能	-10256
城墙之上	-10257
天墓之中	-10258
寂静无声	-10259
居然还能	-10260
山脉之内	-10261
惊喜之色	-10262
想干什么	-10263
方言三人	-10264
施展而出	-10265
明显也是	-10266
暴射而来	-10267
有着药老	-10268
毛骨悚然	-10269
没想到连	-10270
泛着许些	-10271
海波东的	-10272
灰色气流	-10273
灰衣男子	-10274
灵魂分身	-10275
炼制而出	-10276
炼制躯体	-10277
狂喜之色	-10278
眉头却是	-10279
真是让人	-10280
空间大门	-10281
红色液体	-10282
而在这种	-10283
脱手而出	-10284
若是想要	-10285
萧炎那副	-10286
藏龙卧虎	-10287
让得自己	-10288
贵宾席上	-10289
近距离的	-10290
这股气息	-10291
顿时犹如	-10292
黑色锁链	-10293
▁听得他的	-10294
▁摘星老鬼	-10295
▁萧炎身形	-10296
也是徐徐的	-10297
剧烈的咳嗽	-10298
半只脚踏入	-10299
在迦南学院	-10300
安静了许多	-10301
庞大的能量	-10302
得沸沸扬扬	-10303
恐怕还真是	-10304
浏览器输入	-10305
略微的有些	-10306
看上去颇为	-10307
破风声响起	-10308
紧闭的眼眸	-10309
萧炎自然是	-10310
谁也不知道	-10311
达到了一个	-10312
退后了几步	-10313
▁对于萧炎的	-10314
的目光注视下	-10315
离开加玛帝国	-10316
脸色微微一变	-10317
萧炎也是有些	-10318
萧炎摊了摊手	-10319
萧炎淡淡一笑	-10320
▁深吸了一口气	-10321
悄悄松了一口气	-10322
▁她	-10323
▁巨	-10324
一瓶	-10325
一白	-10326
三兽	-10327
不入	-10328
不尽	-10329
不必	-10330
不通	-10331
世豪	-10332
临死	-10333
为敌	-10334
之为	-10335
伤亡	-10336
你得	-10337
停歇	-10338
冰镜	-10339
凝结	-10340
削弱	-10341
剑气	-10342
口的	-10343
和你	-10344
咕噜	-10345
喘息	-10346
嗓音	-10347
四大	-10348
围攻	-10349
大张	-10350
大打	-10351
如斯	-10352
婆婆	-10353
客卿	-10354
对抗	-10355
尖刺	-10356
尺子	-10357
已至	-10358
心智	-10359
必得	-10360
忙碌	-10361
忙脚	-10362
怜悯	-10363
情势	-10364
惊险	-10365
想过	-10366
成果	-10367
战船	-10368
房顶	-10369
打成	-10370
找我	-10371
抓去	-10372
报仇	-10373
抱有	-10374
捂着	-10375
推门	-10376
握下	-10377
数字	-10378
数目	-10379
断了	-10380
无名	-10381
时代	-10382
暴虐	-10383
有个	-10384
横行	-10385
歉意	-10386
每个	-10387
每年	-10388
气泡	-10389
派出	-10390
温婉	-10391
溃败	-10392
激战	-10393
灿灿	-10394
牢笼	-10395
狐狸	-10396
玲珑	-10397
痛楚	-10398
眼的	-10399
碍于	-10400
秋水	-10401
老狗	-10402
肋骨	-10403
肚内	-10404
胜过	-10405
能耐	-10406
节奏	-10407
莫非	-10408
葬身	-10409
蚂蚁	-10410
蛇形	-10411
蜿蜒	-10412
衡量	-10413
被震	-10414
见见	-10415
言语	-10416
计划	-10417
讨厌	-10418
让开	-10419
记录	-10420
误会	-10421
谁会	-10422
调查	-10423
起到	-10424
跨越	-10425
这对	-10426
酥麻	-10427
银蛇	-10428
闻名	-10429
陡峭	-10430
面目	-10431
骨参	-10432
魂丹	-10433
魂界	-10434
魔猿	-10435
齐声	-10436
龙吟	-10437
▁另外	-10438
▁彩鳞	-10439
▁想起	-10440
▁翌日	-10441
▁至于	-10442
一切的	-10443
一定会	-10444
不屑的	-10445
人蝎子	-10446
传说中	-10447
但也是	-10448
你这个	-10449
内院中	-10450
半空处	-10451
压抑着	-10452
在下方	-10453
在里面	-10454
地东西	-10455
多出了	-10456
大部队	-10457
将一些	-10458
岁月的	-10459
应该会	-10460
心动魄	-10461
惊讶的	-10462
我魂殿	-10463
所为的	-10464
所施展	-10465
抿着嘴	-10466
放大的	-10467
无数的	-10468
有时间	-10469
本护法	-10470
沉吟间	-10471
淡然的	-10472
狠手辣	-10473
的人类	-10474
的岩浆	-10475
的消失	-10476
的火灵	-10477
的药鼎	-10478
的规矩	-10479
看不出	-10480
短暂的	-10481
短短一	-10482
秒时间	-10483
竟然能	-10484
给他们	-10485
继续码	-10486
而对于	-10487
而是在	-10488
能不能	-10489
脑袋上	-10490
茫然的	-10491
血红的	-10492
见到过	-10493
请放心	-10494
谈话间	-10495
走到了	-10496
起身子	-10497
起身来	-10498
跟他们	-10499
踏入了	-10500
边缘处	-10501
还不如	-10502
还如何	-10503
还能有	-10504
这一天	-10505
这种话	-10506
退出了	-10507
那所谓	-10508
阴寒的	-10509
阴测测	-10510
飞行兽	-10511
▁在这般	-10512
▁而就在	-10513
不可置信	-10514
之中传出	-10515
也是无法	-10516
了一番后	-10517
了片刻后	-10518
从其嘴中	-10519
他也明白	-10520
便是彻底	-10521
倾泻而下	-10522
发动攻击	-10523
古井无波	-10524
响彻天际	-10525
喷薄而出	-10526
噗的一声	-10527
四星斗圣	-10528
在其心中	-10529
坐在椅上	-10530
城市之中	-10531
小心一点	-10532
居然还有	-10533
巅峰状态	-10534
广场上的	-10535
当下心中	-10536
忽然响起	-10537
抿了一口	-10538
有着异火	-10539
朝前一踏	-10540
毫不留情	-10541
涌盛而出	-10542
甩了甩头	-10543
皆是一怔	-10544
目光投向	-10545
目光透过	-10546
看完更新	-10547
磐门成员	-10548
神秘女人	-10549
终于是一	-10550
能够直接	-10551
脸色苍白	-10552
越来越强	-10553
轰然爆裂	-10554
轻笑了笑	-10555
这个萧炎	-10556
金刚琉璃	-10557
▁两者相撞	-10558
一道道裂缝	-10559
兄弟姐妹们	-10560
再次出现时	-10561
却是缓缓的	-10562
却是越来越	-10563
在天空之上	-10564
大庭广众下	-10565
将目光转向	-10566
恐怖的高温	-10567
想必应该是	-10568
有关的消息	-10569
有着丝毫的	-10570
果然是见到	-10571
炼制的丹药	-10572
的那些家伙	-10573
三千焱炎火的	-10574
声音低沉的道	-10575
对着萧炎等人	-10576
最后停留在了	-10577
紫褐色的火焰	-10578
足有百丈庞大的	-10579
............,	-10580
1,	-10581
一十	-10582
一摆	-10583
一跳	-10584
七章	-10585
不受	-10586
久的	-10587
之话	-10588
九转	-10589
了这	-10590
二星	-10591
二楼	-10592
五彩	-10593
今夜	-10594
但她	-10595
保命	-10596
傻瓜	-10597
八个	-10598
刚想	-10599
到此	-10600
剑尖	-10601
否认	-10602
嗔道	-10603
嘀中	-10604
嘲笑	-10605
塔尖	-10606
处理	-10607
大伤	-10608
大型	-10609
好事	-10610
察看	-10611
寿命	-10612
尊劲	-10613
就连	-10614
强势	-10615
微颤	-10616
怒道	-10617
怨恨	-10618
惹人	-10619
所指	-10620
扇动	-10621
方岚	-10622
暗道	-10623
本殿	-10624
椅背	-10625
沉稳	-10626
沧桑	-10627
泛红	-10628
浩浩	-10629
浩荡	-10630
混迹	-10631
游戏	-10632
火燎	-10633
火盘	-10634
灯光	-10635
物体	-10636
狠毒	-10637
狮天	-10638
王族	-10639
白狐	-10640
目送	-10641
相识	-10642
石板	-10643
箭炎	-10644
纹身	-10645
细胞	-10646
而走	-10647
脸面	-10648
被你	-10649
被她	-10650
负责	-10651
趁着	-10652
路的	-10653
路过	-10654
过于	-10655
过处	-10656
逆转	-10657
递给	-10658
银盘	-10659
锋芒	-10660
闪身	-10661
阴暗	-10662
阴骨	-10663
飞舞	-10664
骨髓	-10665
高度	-10666
黑水	-10667
?’’	-10668
?”“	-10669
▁一击	-10670
▁一名	-10671
▁萧玉	-10672
▁雅妃	-10673
。,’	-10674
万药斋	-10675
不仅是	-10676
与魂族	-10677
两年前	-10678
乖乖的	-10679
乳白色	-10680
了点吧	-10681
今天的	-10682
他一人	-10683
他这话	-10684
你二人	-10685
便已是	-10686
倒霉的	-10687
凝聚了	-10688
出来吧	-10689
出现后	-10690
前面的	-10691
发生了	-10692
古怪的	-10693
只知道	-10694
吸收了	-10695
回去吧	-10696
天蝎子	-10697
将它们	-10698
就直接	-10699
屠龙剑	-10700
干枯的	-10701
并不多	-10702
庄世豪	-10703
微笑的	-10704
恐怕要	-10705
恐怕这	-10706
我便是	-10707
戒指中	-10708
手忙脚	-10709
探而出	-10710
攻击力	-10711
数百丈	-10712
族人的	-10713
日后的	-10714
流露出	-10715
的一次	-10716
的主意	-10717
的危险	-10718
的第一	-10719
的面上	-10720
的颜色	-10721
着一个	-10722
着地面	-10723
空地上	-10724
萧炎一	-10725
虽说这	-10726
血脉的	-10727
街道上	-10728
衫男子	-10729
见识过	-10730
议事厅	-10731
请诸位	-10732
转化成	-10733
还是那	-10734
那一步	-10735
那已经	-10736
重要性	-10737
阴骨老	-10738
震惊的	-10739
青长老	-10740
顾不得	-10741
▁广场上	-10742
▁高台上	-10743
一位身着	-10744
一步步的	-10745
不了什么	-10746
不少人的	-10747
什么叫做	-10748
从一开始	-10749
他也只能	-10750
传来一道	-10751
似乎有点	-10752
便是猛然	-10753
便是缓缓	-10754
停下脚步	-10755
可是有些	-10756
因此也是	-10757
因此对于	-10758
在他面前	-10759
容易的事	-10760
对着前者	-10761
带着一股	-10762
强上许多	-10763
微微波动	-10764
快若闪电	-10765
急速闪烁	-10766
惊心动魄	-10767
截然不同	-10768
旋即犹如	-10769
清脆声响	-10770
灵魂波动	-10771
猛然一颤	-10772
猛的一震	-10773
略微沉默	-10774
白发女子	-10775
白袍男子	-10776
直冲云霄	-10777
突破到了	-10778
站起身子	-10779
缓步走出	-10780
能够提升	-10781
脸色铁青	-10782
苏千也是	-10783
萧炎刚欲	-10784
越加接近	-10785
足以令得	-10786
轻声问道	-10787
这些能量	-10788
这座城市	-10789
都是没有	-10790
随意的道	-10791
露出一张	-10792
面色顿时	-10793
魂殿手中	-10794
▁听得药老	-10795
三兽蛮荒决	-10796
也不是什么	-10797
也是不由得	-10798
你应该知道	-10799
先前萧炎所	-10800
净莲妖火的	-10801
剧烈的波动	-10802
好半晌之后	-10803
慕骨老人的	-10804
持续了片刻	-10805
接连不断的	-10806
旋即一道道	-10807
的萧炎来说	-10808
直接是将那	-10809
眉头皱了皱	-10810
若是有机会	-10811
萧炎与薰儿	-10812
萧炎的脸色	-10813
迟疑了一会	-10814
面前的空间	-10815
想象中的那般	-10816
所需要的东西	-10817
所需要的药材	-10818
掠过这道念头	-10819
脸庞上的笑意	-10820
脸色略微有些	-10821
轻轻点了点头	-10822
这两个老家伙	-10823
目瞪口呆的望着	-10824
眉头微微皱了皱	-10825
脸色也是微微一变	-10826
▁面	-10827
丁点	-10828
上千	-10829
不合	-10830
不浅	-10831
中期	-10832
之列	-10833
之又	-10834
人气	-10835
他说	-10836
伊哇	-10837
你又	-10838
兰芝	-10839
冒险	-10840
分心	-10841
制的	-10842
剔除	-10843
势头	-10844
十足	-10845
可我	-10846
可真	-10847
各不	-10848
吱吱	-10849
吼道	-10850
响声	-10851
四位	-10852
坐着	-10853
垃圾	-10854
太上	-10855
妖怪	-10856
委屈	-10857
孤独	-10858
山丘	-10859
应喝	-10860
异议	-10861
弟弟	-10862
强力	-10863
当成	-10864
得近	-10865
必备	-10866
快的	-10867
急切	-10868
我了	-10869
扬起	-10870
拉扯	-10871
拍着	-10872
挥舞	-10873
接住	-10874
无关	-10875
无限	-10876
早便	-10877
显赫	-10878
晚辈	-10879
更好	-10880
月的	-10881
树丛	-10882
没用	-10883
激活	-10884
灵活	-10885
烈日	-10886
物的	-10887
狂涌	-10888
狂笑	-10889
玄妙	-10890
玉简	-10891
白痴	-10892
相遇	-10893
看清	-10894
眼界	-10895
石头	-10896
石室	-10897
祈祷	-10898
禁地	-10899
粗气	-10900
缩在	-10901
耳闻	-10902
肌肤	-10903
能有	-10904
脱口	-10905
腥臭	-10906
般地	-10907
荒凉	-10908
药丸	-10909
蓝鹰	-10910
蜂拥	-10911
角质	-10912
证明	-10913
败了	-10914
跪伏	-10915
轻视	-10916
辅助	-10917
通报	-10918
遭遇	-10919
闪退	-10920
防守	-10921
风云	-10922
高高	-10923
鬼关	-10924
黑印	-10925
!!!	-10926
▁ps	-10927
▁一个	-10928
▁为了	-10929
▁原本	-10930
▁法犸	-10931
▁萧战	-10932
▁这里	-10933
不仅未	-10934
中心处	-10935
为自己	-10936
也不要	-10937
也未曾	-10938
了不成	-10939
今日这	-10940
从体内	-10941
他所说	-10942
你可以	-10943
冲击波	-10944
剩余的	-10945
占据了	-10946
发出了	-10947
可他们	-10948
困难度	-10949
在场中	-10950
在外面	-10951
在虚空	-10952
失败率	-10953
失败的	-10954
如果你	-10955
将后者	-10956
小杂种	-10957
席位上	-10958
平淡的	-10959
得可怕	-10960
惊声道	-10961
想必是	-10962
感知力	-10963
所过处	-10964
打定了	-10965
数千年	-10966
文字版	-10967
无力的	-10968
是一场	-10969
溜溜的	-10970
男一女	-10971
百分之	-10972
的天赋	-10973
的手印	-10974
的火奴	-10975
的眼光	-10976
的确切	-10977
的碧绿	-10978
的药液	-10979
直直的	-10980
看来得	-10981
磐门的	-10982
空气中	-10983
笑的道	-10984
简直是	-10985
肯定会	-10986
胸膛处	-10987
苍老人	-10988
萧炎对	-10989
表现出	-10990
被强行	-10991
起手来	-10992
跟随着	-10993
转动着	-10994
这一击	-10995
这一拳	-10996
造成了	-10997
那也就	-10998
那女人	-10999
那恐怖	-11000
都能够	-11001
难得一	-11002
非常的	-11003
黑暗中	-11004
▁在两人	-11005
一人之力	-11006
一名长老	-11007
一种极为	-11008
一阵剧烈	-11009
一阵蠕动	-11010
两种火焰	-11011
也是一惊	-11012
也是急忙	-11013
以他们的	-11014
以前那般	-11015
似乎并不	-11016
依然还是	-11017
便是需要	-11018
修炼之法	-11019
几道人影	-11020
包裹其中	-11021
千万不要	-11022
半空之上	-11023
发出一阵	-11024
古元等人	-11025
可是有着	-11026
后者也是	-11027
响起一道	-11028
哼了一声	-11029
噙着许些	-11030
在他们的	-11031
在其手中	-11032
在大厅中	-11033
在无数道	-11034
多了几分	-11035
如此年纪	-11036
并不陌生	-11037
心中所想	-11038
心中暗自	-11039
心狠手辣	-11040
愕然的道	-11041
戒指之中	-11042
手中长剑	-11043
按照规矩	-11044
旋即身形	-11045
无可奈何	-11046
暴冲而出	-11047
有些出乎	-11048
有什么好	-11049
浩浩荡荡	-11050
然后再度	-11051
狠狠的撞	-11052
猛的一颤	-11053
白山三人	-11054
的战斗力	-11055
眼中却是	-11056
紧咬着牙	-11057
而其身体	-11058
若是遇见	-11059
萧炎将之	-11060
落入下风	-11061
虽然看似	-11062
让人感到	-11063
说了一遍	-11064
轰了过去	-11065
这些长老	-11066
这种实力	-11067
这等阵容	-11068
阴寒之力	-11069
陡然睁开	-11070
除了一些	-11071
高台上的	-11072
魔炎谷的	-11073
..."-	-11074
▁听得这道	-11075
不约而同的	-11076
从未听说过	-11077
其中所蕴含	-11078
却是丝毫不	-11079
周遭的空间	-11080
嘀咕了一声	-11081
在经脉之中	-11082
天魂融血丹	-11083
如此恐怖的	-11084
微微变了变	-11085
成一片虚无	-11086
手指轻轻的	-11087
明白了什么	-11088
星陨阁弟子	-11089
此刻的萧炎	-11090
海波东等人	-11091
火能猎捕赛	-11092
的天地能量	-11093
这个世界上	-11094
并没有太大的	-11095
收入纳戒之中	-11096
旋即众人便是	-11097
萧炎眉头也是	-11098
转身便是对着	-11099
抹去嘴角的血迹	-11100
......,”	-11101
。(	-11102
一二	-11103
一探	-11104
一生	-11105
一角	-11106
上身	-11107
下沉	-11108
不待	-11109
不济	-11110
两星	-11111
为那	-11112
之翼	-11113
之计	-11114
云彩	-11115
五天	-11116
他不	-11117
以其	-11118
众位	-11119
保险	-11120
全神	-11121
出门	-11122
分辨	-11123
半米	-11124
反扑	-11125
向前	-11126
咔咔	-11127
回忆	-11128
回缩	-11129
团团	-11130
地确	-11131
坚韧	-11132
处境	-11133
大成	-11134
女神	-11135
对它	-11136
巨钟	-11137
巴巴	-11138
底子	-11139
弄得	-11140
引人	-11141
引动	-11142
引发	-11143
当真	-11144
影像	-11145
心血	-11146
思量	-11147
我很	-11148
我族	-11149
战争	-11150
扑来	-11151
挺拔	-11152
操纵	-11153
无以	-11154
无边	-11155
无风	-11156
昂贵	-11157
暗蕴	-11158
最先	-11159
最有	-11160
沉神	-11161
海洋	-11162
涌去	-11163
滴滴	-11164
炸声	-11165
盐城	-11166
相见	-11167
眉尖	-11168
破开	-11169
种子	-11170
稍微	-11171
空闲	-11172
竞价	-11173
答话	-11174
精准	-11175
精美	-11176
缴纳	-11177
自会	-11178
苦苦	-11179
茅屋	-11180
莞尔	-11181
菱形	-11182
葬生	-11183
蛮力	-11184
规则	-11185
记在	-11186
赢了	-11187
足可	-11188
辈子	-11189
这也	-11190
追逐	-11191
退散	-11192
那份	-11193
采药	-11194
铁片	-11195
长达	-11196
际的	-11197
除开	-11198
雷龙	-11199
顽抗	-11200
顾自	-11201
颇有	-11202
高价	-11203
魅力	-11204
龙卷	-11205
龙眼	-11206
▁宽敞	-11207
▁少女	-11208
▁斗气	-11209
。’,	-11210
一圈圈	-11211
不多的	-11212
不虚传	-11213
举一动	-11214
也是从	-11215
了大半	-11216
从某种	-11217
众强者	-11218
其手掌	-11219
其目光	-11220
加列怒	-11221
却只是	-11222
厚实的	-11223
又将会	-11224
反而会	-11225
古族的	-11226
可对于	-11227
听得那	-11228
在何处	-11229
在远古	-11230
地目光	-11231
场地中	-11232
城门口	-11233
多少人	-11234
天涯城	-11235
她知道	-11236
如今他	-11237
它们的	-11238
射进了	-11239
小萧潇	-11240
就将会	-11241
尴尬的	-11242
左右后	-11243
带着人	-11244
干净净	-11245
应该也	-11246
弟兄们	-11247
怎可能	-11248
恨不得	-11249
我们便	-11250
控制下	-11251
是我们	-11252
水晶球	-11253
求月票	-11254
温柔的	-11255
然而至	-11256
独角兽	-11257
留下了	-11258
的一击	-11259
的劲风	-11260
的地域	-11261
的地板	-11262
的山洞	-11263
的材料	-11264
的条件	-11265
的蛇人	-11266
的诡异	-11267
的那场	-11268
的魔核	-11269
的黑衣	-11270
看不透	-11271
破碎的	-11272
碰触到	-11273
称之为	-11274
移动着	-11275
稳稳的	-11276
第二天	-11277
给你们	-11278
绚丽的	-11279
脸上的	-11280
药族的	-11281
被封印	-11282
说笑了	-11283
谁能够	-11284
足以让	-11285
转眼间	-11286
转移到	-11287
还活着	-11288
这丫头	-11289
连药老	-11290
那里去	-11291
镇鬼关	-11292
难看的	-11293
风属性	-11294
麻烦的	-11295
▁在这种	-11296
▁林修崖	-11297
▁目光在	-11298
一般来说	-11299
不要以为	-11300
不过对于	-11301
不过此时	-11302
不过这些	-11303
与美杜莎	-11304
九星斗宗	-11305
二阶魔兽	-11306
他也清楚	-11307
他们二人	-11308
他感觉到	-11309
众人也是	-11310
众人都是	-11311
你也不用	-11312
依然能够	-11313
便是令得	-11314
内院长老	-11315
再没有了	-11316
则是能够	-11317
却是一笑	-11318
召唤而出	-11319
大厅之内	-11320
寻常人物	-11321
席位之上	-11322
庞大能量	-11323
微微一动	-11324
心念一动	-11325
恐怕就得	-11326
慕兰二老	-11327
我云岚宗	-11328
或许可以	-11329
手印一动	-11330
抓了过去	-11331
拼了命的	-11332
旋即猛然	-11333
本源之火	-11334
果然还是	-11335
淡青色的	-11336
炽热劲风	-11337
爆发开来	-11338
疑惑的道	-11339
白衣老者	-11340
的中年人	-11341
眼中寒芒	-11342
眼瞳微缩	-11343
经过先前	-11344
缓缓抬起	-11345
脑袋之上	-11346
苍老人影	-11347
萧炎发现	-11348
虽然他们	-11349
这场大战	-11350
这幅模样	-11351
透着一抹	-11352
那岂不是	-11353
长眉长老	-11354
青衣女人	-11355
飙射而出	-11356
飞快的在	-11357
之中的萧炎	-11358
可怕的能量	-11359
对着小医仙	-11360
居然是直接	-11361
庞大的身躯	-11362
愕然的望着	-11363
我也不知道	-11364
施展到极致	-11365
皱了皱眉头	-11366
直接是让得	-11367
若有若无的	-11368
萧炎沉声道	-11369
赫然便是那	-11370
这里的空间	-11371
难以置信的	-11372
▁望着这一幕	-11373
两名斗宗强者	-11374
化为一道流光	-11375
却是忍不住的	-11376
嘴角微微抽搐	-11377
淡淡的笑了笑	-11378
紧紧的注视着	-11379
▁萧炎面无表情	-11380
。』	-11381
一支	-11382
三股	-11383
下午	-11384
下降	-11385
两侧	-11386
严肃	-11387
丹兽	-11388
久久	-11389
之手	-11390
九百	-11391
也想	-11392
书架	-11393
五位	-11394
倾力	-11395
做梦	-11396
停住	-11397
光光	-11398
六十	-11399
净化	-11400
凝定	-11401
动荡	-11402
厮杀	-11403
取其	-11404
召集	-11405
名气	-11406
吵杂	-11407
呈现	-11408
呻吟	-11409
喜庆	-11410
四射	-11411
圣地	-11412
在外	-11413
多么	-11414
多亏	-11415
奇妙	-11416
奎刹	-11417
如既	-11418
始至	-11419
宽阔	-11420
尺芒	-11421
岔子	-11422
左边	-11423
平台	-11424
当众	-11425
当机	-11426
待了	-11427
微寒	-11428
微风	-11429
怒声	-11430
想比	-11431
成倍	-11432
手打	-11433
拔升	-11434
挥下	-11435
捣乱	-11436
摇摇	-11437
旅馆	-11438
无故	-11439
昨日	-11440
暴喝	-11441
曾修	-11442
最佳	-11443
本座	-11444
柳昌	-11445
桀骜	-11446
桌旁	-11447
森森	-11448
欲坠	-11449
武装	-11450
比那	-11451
沉就	-11452
活物	-11453
淡雅	-11454
满着	-11455
激怒	-11456
火兽	-11457
火线	-11458
焚天	-11459
特定	-11460
特效	-11461
狠色	-11462
玉指	-11463
瓜葛	-11464
瓶口	-11465
畏忌	-11466
白鹰	-11467
的低	-11468
着急	-11469
研习	-11470
确认	-11471
神品	-11472
算算	-11473
纤腰	-11474
置疑	-11475
老远	-11476
而亡	-11477
而入	-11478
背间	-11479
脱颖	-11480
腥味	-11481
花俏	-11482
莲座	-11483
蜈蚣	-11484
还手	-11485
这天	-11486
迟缓	-11487
退避	-11488
逃出	-11489
那双	-11490
那层	-11491
长大	-11492
阁楼	-11493
阳火	-11494
隐居	-11495
雕塑	-11496
韩田	-11497
首先	-11498
高涨	-11499
魔晶	-11500
▁‘,	-11501
▁体内	-11502
▁刚刚	-11503
▁曹颖	-11504
▁现在	-11505
。##	-11506
上不少	-11507
不一样	-11508
不久后	-11509
与萧家	-11510
严严实	-11511
了几句	-11512
二十岁	-11513
些什么	-11514
他自然	-11515
以一敌	-11516
以她的	-11517
会有着	-11518
你需要	-11519
便将会	-11520
冰尊劲	-11521
出来时	-11522
前者的	-11523
只见那	-11524
唯有着	-11525
喉咙处	-11526
回去了	-11527
大半个	-11528
大殿内	-11529
她便是	-11530
始至终	-11531
姚先生	-11532
存在的	-11533
小时候	-11534
巨大地	-11535
应该能	-11536
当年他	-11537
得罪了	-11538
恐怕也	-11539
恐怕都	-11540
愣了一	-11541
所遗留	-11542
掠进了	-11543
是有些	-11544
最后与	-11545
有些事	-11546
有任何	-11547
根木桩	-11548
没多久	-11549
深不可	-11550
炼化了	-11551
狂猛的	-11552
的一头	-11553
的一点	-11554
的原因	-11555
的好处	-11556
的将之	-11557
的攻势	-11558
的目的	-11559
的笑意	-11560
空气的	-11561
突然的	-11562
缓步走	-11563
脆弱的	-11564
蠕动着	-11565
角质层	-11566
认真的	-11567
让老夫	-11568
许久后	-11569
贪婪的	-11570
轰轰轰	-11571
运转着	-11572
还以为	-11573
还远远	-11574
这三年	-11575
这傀儡	-11576
这只是	-11577
这条命	-11578
遗留下	-11579
遥遥的	-11580
那众多	-11581
那因为	-11582
静静的	-11583
▁低沉的	-11584
一些东西	-11585
一星斗圣	-11586
两名长老	-11587
也是直接	-11588
也是相当	-11589
五色丹雷	-11590
他们知道	-11591
众人目光	-11592
你也知道	-11593
你没事吧	-11594
使用斗气	-11595
便是见到	-11596
做过多的	-11597
化为一团	-11598
却是宛如	-11599
却是没有	-11600
原本以为	-11601
同样也是	-11602
名不虚传	-11603
多加小心	-11604
太上长老	-11605
好恐怖的	-11606
如此恐怖	-11607
实力极强	-11608
客卿长老	-11609
对视一眼	-11610
带起一道	-11611
席卷而去	-11612
干干净净	-11613
干瘦男子	-11614
应该知道	-11615
当下急忙	-11616
彻彻底底	-11617
微微颤抖	-11618
摇摇欲坠	-11619
旋即满脸	-11620
显得格外	-11621
每一个人	-11622
源源不断	-11623
滴落而下	-11624
百米之外	-11625
眼中皆是	-11626
砰的一声	-11627
笼罩而进	-11628
肩膀之上	-11629
脸色惨白	-11630
至少需要	-11631
萧炎周身	-11632
越加浓郁	-11633
身体之中	-11634
达到斗圣	-11635
迅速跟上	-11636
还是能够	-11637
这么多人	-11638
这是一种	-11639
这等恐怖	-11640
连他都是	-11641
透着一分	-11642
逐渐凝重	-11643
那个萧炎	-11644
阴冷一笑	-11645
院长大人	-11646
魂族强者	-11647
▁萧炎望着	-11648
▁萧炎笑笑	-11649
与迦南学院	-11650
传说之中的	-11651
便是逐渐的	-11652
半个小时后	-11653
发生了什么	-11654
四处扫了扫	-11655
天妖凰族的	-11656
平淡的声音	-11657
感受着体内	-11658
拇指大小的	-11659
最后悬浮在	-11660
最快的速度	-11661
每一个角落	-11662
火属性能量	-11663
火焰蜥蜴人	-11664
然而就在其	-11665
的响了起来	-11666
的斗尊强者	-11667
的空间之中	-11668
看了一眼那	-11669
紧咬着红唇	-11670
结结实实的	-11671
萧炎等人的	-11672
身为炼药师	-11673
还有着一些	-11674
这两个家伙	-11675
这么多年的	-11676
这加玛帝国	-11677
那些老家伙	-11678
重重的砸在	-11679
一口殷红鲜血	-11680
一缕青色火焰	-11681
便是对着萧炎	-11682
便是闪电般的	-11683
其中所蕴含的	-11684
声音嘶哑的道	-11685
如同风暴一般	-11686
清楚的感觉到	-11687
眼睁睁的看着	-11688
眼瞳微微一缩	-11689
脚掌一跺地面	-11690
药老淡淡的道	-11691
这三千焱炎火	-11692
也是逐渐的变得	-11693
以他现在的实力	-11694
叹息着摇了摇头	-11695
眼睛死死的盯着	-11696
从纳戒中取出一枚	-11697
目瞪口呆的望着那	-11698
长长的松了一口气	-11699
鬼魅般的出现在了	-11700
......,’’	-11701
,.	-11702
xs	-11703
。‘	-11704
一扬	-11705
一提	-11706
一记	-11707
不爽	-11708
两头	-11709
两月	-11710
两败	-11711
严承	-11712
丧失	-11713
丹丸	-11714
丹的	-11715
为过	-11716
主角	-11717
九头	-11718
也走	-11719
二品	-11720
他却	-11721
你个	-11722
便请	-11723
俯视	-11724
俱伤	-11725
假的	-11726
傻傻	-11727
元气	-11728
决心	-11729
出价	-11730
刀刃	-11731
创始	-11732
初次	-11733
到底	-11734
十六	-11735
历代	-11736
厚厚	-11737
取下	-11738
叠加	-11739
另类	-11740
同一	-11741
同情	-11742
听从	-11743
吸掌	-11744
吸进	-11745
嘘唏	-11746
回春	-11747
场景	-11748
复紫	-11749
大腿	-11750
大量	-11751
好久	-11752
害怕	-11753
射去	-11754
小女	-11755
属实	-11756
巨坑	-11757
巨掌	-11758
干嘛	-11759
底线	-11760
店铺	-11761
心了	-11762
怒骂	-11763
悠悠	-11764
意义	-11765
手心	-11766
打定	-11767
拖得	-11768
招集	-11769
拼得	-11770
揉着	-11771
救了	-11772
新书	-11773
无辜	-11774
更胜	-11775
曹休	-11776
有用	-11777
未来	-11778
杀你	-11779
来时	-11780
枯萎	-11781
柳腰	-11782
毁天	-11783
毙命	-11784
沟壑	-11785
流传	-11786
消融	-11787
深刻	-11788
温顺	-11789
满地	-11790
火口	-11791
灯火	-11792
热气	-11793
焦黑	-11794
的成	-11795
的死	-11796
的毒	-11797
盟友	-11798
相处	-11799
着你	-11800
磨练	-11801
禁止	-11802
竭力	-11803
端着	-11804
第五	-11805
精通	-11806
结成	-11807
老脸	-11808
肉体	-11809
脱身	-11810
腾腾	-11811
薄薄	-11812
蛇女	-11813
记着	-11814
贴身	-11815
身下	-11816
躲闪	-11817
较量	-11818
辨认	-11819
这株	-11820
退婚	-11821
逼到	-11822
野心	-11823
错误	-11824
锻体	-11825
闷声	-11826
防卫	-11827
阵仗	-11828
降落	-11829
雨滴	-11830
霸气	-11831
青筋	-11832
风压	-11833
香味	-11834
驱除	-11835
魂煞	-11836
魂珠	-11837
魂髓	-11838
..。	-11839
▁叶重	-11840
▁语罢	-11841
一现身	-11842
一闪间	-11843
与实力	-11844
与杀意	-11845
中响起	-11846
中州的	-11847
从这里	-11848
他二人	-11849
他目光	-11850
众长老	-11851
你也是	-11852
便只有	-11853
俯视着	-11854
催促道	-11855
先前在	-11856
具备的	-11857
冲击下	-11858
分外的	-11859
却是要	-11860
却是连	-11861
可最后	-11862
回到了	-11863
回过神	-11864
围观者	-11865
在学院	-11866
外界的	-11867
大统领	-11868
她倒是	-11869
如果真	-11870
完整的	-11871
将这个	-11872
小混蛋	-11873
就是一	-11874
就知道	-11875
希望你	-11876
当机立	-11877
急匆匆	-11878
急火燎	-11879
战斗中	-11880
所遇见	-11881
打不过	-11882
扫视着	-11883
找到了	-11884
抱拳道	-11885
拦住他	-11886
收回了	-11887
整个人	-11888
暴怒的	-11889
有实力	-11890
有能力	-11891
来形容	-11892
极度的	-11893
比以往	-11894
沙漠中	-11895
漠然的	-11896
猛烈的	-11897
白煞队	-11898
的傀儡	-11899
的卷轴	-11900
的大陆	-11901
的山峰	-11902
的的确	-11903
的紫色	-11904
的面积	-11905
直视着	-11906
看他们	-11907
看出了	-11908
着许些	-11909
离开时	-11910
突然在	-11911
第一层	-11912
肩膀处	-11913
胸口上	-11914
舍不得	-11915
若是传	-11916
药鼎的	-11917
西龙王	-11918
踏地面	-11919
身之上	-11920
还不是	-11921
这么说	-11922
进入那	-11923
遇见过	-11924
遮掩了	-11925
那一刻	-11926
那么他	-11927
那他们	-11928
那最后	-11929
重伤的	-11930
防御罩	-11931
韩枫的	-11932
▁而对于	-11933
▁这一刻	-11934
▁随着这	-11935
一一一一	-11936
一道苍老	-11937
一阵扭曲	-11938
三道身影	-11939
不是寻常	-11940
之中最为	-11941
也是一愣	-11942
二星斗尊	-11943
任何东西	-11944
依然没有	-11945
刀疤男子	-11946
加玛圣城	-11947
动了起来	-11948
却是只能	-11949
压制而下	-11950
变得更加	-11951
另外一边	-11952
可以说是	-11953
咬着嘴唇	-11954
在一瞬间	-11955
复紫灵丹	-11956
大多数人	-11957
如今萧炎	-11958
妖火本源	-11959
寥寥可数	-11960
对着薰儿	-11961
对自己的	-11962
将萧炎的	-11963
居然都是	-11964
山壁之上	-11965
巅峰实力	-11966
已经算是	-11967
当下只能	-11968
微微有些	-11969
心中有些	-11970
急速放大	-11971
悬浮天空	-11972
惊讶的道	-11973
手中印结	-11974
手掌猛的	-11975
扭曲空间	-11976
按照他的	-11977
掉落而下	-11978
斗尊层次	-11979
斗皇层次	-11980
方面来说	-11981
旋即缓缓	-11982
无法形容	-11983
有了一些	-11984
有些不对	-11985
望着场中	-11986
深不可测	-11987
满脸错愕	-11988
甚至都是	-11989
的照耀下	-11990
的美杜莎	-11991
目光闪烁	-11992
目光顺着	-11993
直接是在	-11994
看来今日	-11995
硬生生的	-11996
笑着问道	-11997
第二更到	-11998
红袍老者	-11999
缓缓扫过	-12000
脱颖而出	-12001
脸颊之上	-12002
萧炎又是	-12003
萧炎抬头	-12004
萧炎耳中	-12005
萧炎身上	-12006
裁判席上	-12007
身体都是	-12008
运转而起	-12009
这里便是	-12010
进入前十	-12011
那片空间	-12012
银袍男子	-12013
随着一声	-12014
隐隐有些	-12015
雷鸣般的	-12016
飞掠而来	-12017
高级半圣	-12018
▁魂殿殿主	-12019
万丈庞大的	-12020
仅仅只是一	-12021
凝重的望着	-12022
几个眨眼间	-12023
却是令得他	-12024
可是相当之	-12025
在萧炎等人	-12026
在这片天际	-12027
声响彻而起	-12028
大斗师级别	-12029
如潮水般的	-12030
年轻一辈中	-12031
想到了什么	-12032
有着极大的	-12033
望着萧炎的	-12034
注视着萧炎	-12035
渗透而出的	-12036
温暖的阳光	-12037
的一举一动	-12038
的空间裂缝	-12039
的萧炎等人	-12040
睁开了双眼	-12041
紧绷了起来	-12042
纳兰嫣然的	-12043
纳兰老爷子	-12044
细微的声音	-12045
面前的少年	-12046
骚动了起来	-12047
▁在萧炎等人	-12048
。##..。	-12049
一名斗尊强者	-12050
也是微微一笑	-12051
也是微微点头	-12052
声音平淡的道	-12053
我倒是要看看	-12054
紧紧的盯着那	-12055
苍老的脸庞上	-12056
萧炎也是一怔	-12057
出现在萧炎面前	-12058
剧烈的颤抖了起来	-12059
无奈的叹了一口气	-12060
▁大	-12061
一咬	-12062
一扯	-12063
一瞥	-12064
一紧	-12065
不留	-12066
东北	-12067
之助	-12068
仅剩	-12069
他人	-12070
令的	-12071
任谁	-12072
似笑	-12073
低垂	-12074
便得	-12075
俏丽	-12076
倒海	-12077
候虎	-12078
全副	-12079
养神	-12080
内脏	-12081
冲破	-12082
凡事	-12083
出其	-12084
出头	-12085
切割	-12086
前一	-12087
前倾	-12088
剔透	-12089
十天	-12090
反驳	-12091
发丝	-12092
和我	-12093
哼道	-12094
嗅了	-12095
噬虫	-12096
囊括	-12097
图纹	-12098
坠落	-12099
增涨	-12100
壮大	-12101
多留	-12102
好笑	-12103
妄想	-12104
婚礼	-12105
实话	-12106
寂灭	-12107
寒光	-12108
对外	-12109
尊崇	-12110
少了	-12111
属下	-12112
山脚	-12113
崇拜	-12114
巨拳	-12115
并论	-12116
底层	-12117
弧线	-12118
强到	-12119
快点	-12120
意气	-12121
感动	-12122
我都	-12123
所受	-12124
打了	-12125
打的	-12126
执事	-12127
抱了	-12128
拜托	-12129
指望	-12130
搜查	-12131
摆脱	-12132
无底	-12133
无止	-12134
星极	-12135
昨夜	-12136
有致	-12137
未知	-12138
松气	-12139
查探	-12140
此子	-12141
比你	-12142
气喘	-12143
池中	-12144
没落	-12145
海浪	-12146
深沉	-12147
游荡	-12148
火道	-12149
灰气	-12150
灾难	-12151
熔岩	-12152
狮虎	-12153
白光	-12154
白纸	-12155
相提	-12156
看待	-12157
瞬移	-12158
碎金	-12159
空空	-12160
端起	-12161
红光	-12162
续的	-12163
绿荫	-12164
美女	-12165
老辣	-12166
耳旁	-12167
肚子	-12168
胆怯	-12169
脚跟	-12170
脸蛋	-12171
自认	-12172
至从	-12173
舍得	-12174
舒服	-12175
莫说	-12176
落脚	-12177
血流	-12178
让它	-12179
详细	-12180
谈何	-12181
败退	-12182
贯注	-12183
转变	-12184
轻巧	-12185
送到	-12186
逃过	-12187
选手	-12188
那如	-12189
那座	-12190
那这	-12191
针锋	-12192
铁门	-12193
长矛	-12194
雁九	-12195
雷子	-12196
青紫	-12197
韩利	-12198
领先	-12199
颤动	-12200
风黎	-12201
首席	-12202
香肩	-12203
高低	-12204
▁双掌	-12205
▁喝声	-12206
▁安静	-12207
▁整个	-12208
▁这等	-12209
▁遭受	-12210
下一个	-12211
下一次	-12212
不愿意	-12213
不敢说	-12214
不知鬼	-12215
不简单	-12216
不管他	-12217
也已经	-12218
也曾经	-12219
于萧炎	-12220
云山的	-12221
会成为	-12222
传出的	-12223
似笑非	-12224
但所幸	-12225
便又是	-12226
便是想	-12227
倍之多	-12228
催动着	-12229
全力的	-12230
其气息	-12231
内心的	-12232
几乎被	-12233
古元与	-12234
可不要	-12235
在一道	-12236
在外界	-12237
在心头	-12238
在整个	-12239
在略微	-12240
在进入	-12241
在那个	-12242
地灵丹	-12243
复杂的	-12244
天际的	-12245
太清楚	-12246
好好的	-12247
如果是	-12248
寒气的	-12249
尚还是	-12250
就在他	-12251
帝国的	-12252
应该在	-12253
开来的	-12254
微弱的	-12255
怪不得	-12256
懒懒的	-12257
我也是	-12258
我只是	-12259
我叶家	-12260
我自己	-12261
所占据	-12262
打破了	-12263
斗气所	-12264
无谓的	-12265
早便是	-12266
明亮的	-12267
是何人	-12268
暗金色	-12269
月光石	-12270
极端的	-12271
此人的	-12272
毁天灭	-12273
比他们	-12274
水一般	-12275
然而那	-12276
状态中	-12277
犹如是	-12278
狠狠地	-12279
甚至还	-12280
的一枚	-12281
的世界	-12282
的作用	-12283
的名声	-12284
的天才	-12285
的心态	-12286
的打算	-12287
的火红	-12288
的痕迹	-12289
的皮肤	-12290
看得人	-12291
而凡是	-12292
而瞧得	-12293
能量膜	-12294
若是我	-12295
萧炎道	-12296
表现得	-12297
诧异的	-12298
还有何	-12299
这是一	-12300
那么多	-12301
都只能	-12302
钟吟声	-12303
阴森森	-12304
随你吧	-12305
雪骨参	-12306
顺着那	-12307
黄泉指	-12308
▁感觉到	-12309
▁这一次	-12310
一月时间	-12311
三大巨头	-12312
上的萧炎	-12313
不可能会	-12314
不过他们	-12315
两人都是	-12316
两败俱伤	-12317
五星斗宗	-12318
他的灵魂	-12319
传来一阵	-12320
你们这些	-12321
你的实力	-12322
先是一愣	-12323
全神贯注	-12324
其身后的	-12325
凭空浮现	-12326
千百二老	-12327
可却并未	-12328
四星斗皇	-12329
困难的事	-12330
在中州上	-12331
在持续了	-12332
失败的话	-12333
安然无恙	-12334
对他来说	-12335
山顶之上	-12336
帝品丹药	-12337
强上不少	-12338
彩鳞等人	-12339
微笑点头	-12340
愣了一愣	-12341
成了一片	-12342
我就不信	-12343
方才发现	-12344
旋即猛的	-12345
无所谓的	-12346
更是变得	-12347
有些显得	-12348
望着那被	-12349
桌面之上	-12350
此时此刻	-12351
此话一落	-12352
比起当年	-12353
毫无阻碍	-12354
泛起一股	-12355
淡漠的道	-12356
灵魂本源	-12357
玄阶功法	-12358
目光突然	-12359
目光都是	-12360
相提并论	-12361
眼眸微闭	-12362
眼芒闪烁	-12363
神不知鬼	-12364
竟然都是	-12365
笑吟吟的	-12366
等级徽章	-12367
索索发抖	-12368
缓缓传出	-12369
而也正是	-12370
苏醒过来	-12371
萧炎手臂	-12372
萧炎虽然	-12373
虽然萧炎	-12374
轰然相撞	-12375
还手之力	-12376
这些势力	-12377
这些年来	-12378
这些强者	-12379
这场战斗	-12380
这种力量	-12381
这种地方	-12382
这种强者	-12383
这等人物	-12384
银色光芒	-12385
▁听得苏千	-12386
▁听着萧炎	-12387
▁虚无吞炎	-12388
一旁的薰儿	-12389
也是引起了	-12390
他们的实力	-12391
但即便如此	-12392
几个呼吸间	-12393
几乎是犹如	-12394
叫做萧炎的	-12395
在内院之中	-12396
在萧炎身后	-12397
对着萧炎道	-12398
才是真正的	-12399
打定了主意	-12400
有些疑惑的	-12401
望着天空上	-12402
浓郁了许多	-12403
浓郁的能量	-12404
熟悉的感觉	-12405
爆发而出的	-12406
的恐怖能量	-12407
的斗气铠甲	-12408
的火焰风暴	-12409
磨挲着下巴	-12410
紫黑色火焰	-12411
萧炎抬起头	-12412
萧炎苦笑道	-12413
赞叹了一声	-12414
跳动了起来	-12415
那个老家伙	-12416
一旁的小医仙	-12417
异火榜上排名	-12418
怔怔的望着那	-12419
旋即点了点头	-12420
条件反射般的	-12421
的望着面前的	-12422
瞥了一眼萧炎	-12423
神不知鬼不觉	-12424
米特尔家族的	-12425
脚掌之上银芒	-12426
▁萧炎默默点头	-12427
从天际倾洒而下	-12428
--	-12429
;“	-12430
▁,	-12431
▁嗤	-12432
、”	-12433
一向	-12434
一望	-12435
一死	-12436
万事	-12437
三番	-12438
上移	-12439
不利	-12440
不善	-12441
不喜	-12442
不复	-12443
丢了	-12444
丧命	-12445
为尊	-12446
为难	-12447
了下	-12448
人啊	-12449
人殿	-12450
以待	-12451
休整	-12452
传信	-12453
依言	-12454
便要	-12455
假期	-12456
光了	-12457
再见	-12458
冒腾	-12459
冲上	-12460
冲去	-12461
凶多	-12462
凶气	-12463
凶煞	-12464
分配	-12465
前排	-12466
助你	-12467
十八	-12468
发寒	-12469
可也	-12470
可行	-12471
呆呆	-12472
命运	-12473
善良	-12474
嘶鸣	-12475
嘹亮	-12476
四顾	-12477
围杀	-12478
圆圈	-12479
坐立	-12480
处处	-12481
夕阳	-12482
大字	-12483
大开	-12484
天价	-12485
夹杂	-12486
奖励	-12487
好生	-12488
妥当	-12489
孔洞	-12490
字音	-12491
学妹	-12492
完善	-12493
宝石	-12494
家伏	-12495
宽大	-12496
射将	-12497
小命	-12498
小孩	-12499
巨兽	-12500
巨力	-12501
平缓	-12502
应当	-12503
弄到	-12504
得连	-12505
心怀	-12506
怒砸	-12507
急躁	-12508
恶毒	-12509
我对	-12510
把这	-12511
撞进	-12512
支援	-12513
效率	-12514
无意	-12515
早在	-12516
暴增	-12517
本人	-12518
来临	-12519
枯叶	-12520
柔顺	-12521
样的	-12522
植物	-12523
正视	-12524
死去	-12525
比我	-12526
水流	-12527
沉侵	-12528
沉重	-12529
洒脱	-12530
温养	-12531
满嘴	-12532
火石	-12533
灵药	-12534
焦点	-12535
煞气	-12536
狮子	-12537
猛虎	-12538
玉儿	-12539
王座	-12540
玩火	-12541
环顾	-12542
用了	-12543
畅快	-12544
的到	-12545
的绝	-12546
的被	-12547
眉毛	-12548
看上	-12549
眼色	-12550
睁大	-12551
瞥向	-12552
示意	-12553
神经	-12554
稳下	-12555
突发	-12556
粗糙	-12557
紧急	-12558
纵横	-12559
耻辱	-12560
苍蝇	-12561
茂密	-12562
药岩	-12563
药效	-12564
药灵	-12565
莽炎	-12566
虹芒	-12567
血雷	-12568
袖手	-12569
袖间	-12570
角色	-12571
触感	-12572
讨好	-12573
费雷	-12574
跃上	-12575
跋扈	-12576
躲藏	-12577
轮到	-12578
辈分	-12579
这卷	-12580
退路	-12581
通缉	-12582
那块	-12583
那正	-12584
错觉	-12585
长辈	-12586
除去	-12587
青木	-12588
青涩	-12589
靠在	-12590
骨刀	-12591
高看	-12592
鬼头	-12593
鬼爪	-12594
魂灭	-12595
魅惑	-12596
鲲凰	-12597
鹰爪	-12598
huā	-12599
▁一掌	-12600
▁人影	-12601
▁火莲	-12602
▁眼角	-12603
▁能量	-12604
▁若是	-12605
▁轻轻	-12606
一滴滴	-12607
一眨眼	-12608
与一些	-12609
与奥托	-12610
与寻常	-12611
为何会	-12612
之前的	-12613
也颇为	-12614
他一直	-12615
他只能	-12616
他曾经	-12617
以如今	-12618
以我们	-12619
休息吧	-12620
传出去	-12621
但那种	-12622
你们也	-12623
你想要	-12624
你这般	-12625
偶尔会	-12626
关注着	-12627
冷哼道	-12628
几个月	-12629
到达了	-12630
前者那	-12631
华老怪	-12632
压抑下	-12633
去寻找	-12634
双臂抱	-12635
取得了	-12636
可现在	-12637
喧哗声	-12638
在广场	-12639
在那张	-12640
太爷爷	-12641
如果说	-12642
存在着	-12643
完全由	-12644
小山谷	-12645
引来了	-12646
很大的	-12647
得几乎	-12648
得来的	-12649
忽然道	-12650
怒吼道	-12651
懒散的	-12652
我当年	-12653
我父亲	-12654
打败了	-12655
投入了	-12656
搞什么	-12657
摇了摇	-12658
擅长的	-12659
斗技的	-12660
比自己	-12661
然而立	-12662
生不如	-12663
的因故	-12664
的地点	-12665
的巨响	-12666
的最后	-12667
的级别	-12668
的结局	-12669
的考核	-12670
的萧玉	-12671
的要求	-12672
的青鳞	-12673
的鲜血	-12674
看看吧	-12675
眨眼便	-12676
知道的	-12677
穿梭过	-12678
窜进了	-12679
算不上	-12680
经脉中	-12681
缓缓自	-12682
自顾自	-12683
若非他	-12684
萧族长	-12685
袖袍中	-12686
被对方	-12687
话题上	-12688
语气中	-12689
谁都能	-12690
轰而去	-12691
辽阔的	-12692
这两种	-12693
进入到	-12694
远远超	-12695
透明的	-12696
那可就	-12697
那空间	-12698
配合着	-12699
防御力	-12700
难免会	-12701
雁九行	-12702
雷鸣声	-12703
音波阵	-12704
鬼魅般	-12705
黄泉阁	-12706
▁漆黑的	-12707
▁而在这	-12708
一声怒吼	-12709
一股劲风	-12710
三天时间	-12711
三道人影	-12712
上前两步	-12713
不死不休	-12714
不自觉的	-12715
两天时间	-12716
两色火焰	-12717
为了得到	-12718
也不多说	-12719
也不用再	-12720
也是猛的	-12721
也没什么	-12722
了好几步	-12723
了好片刻	-12724
亡魂山脉	-12725
他们三人	-12726
众多强者	-12727
低声问道	-12728
倒也并未	-12729
倒也的确	-12730
全副武装	-12731
全文字版	-12732
再度出现	-12733
凝重起来	-12734
几乎便是	-12735
出手相助	-12736
到了一个	-12737
到哪里去	-12738
动也不动	-12739
北方天际	-12740
即便是我	-12741
即便是连	-12742
变得极其	-12743
吴昊等人	-12744
响彻不休	-12745
四品丹药	-12746
回转过头	-12747
在这之前	-12748
大笑一声	-12749
如今已经	-12750
妖瞑族长	-12751
对着后者	-12752
对着药老	-12753
对着远处	-12754
寻常强者	-12755
属于那种	-12756
彩色绸缎	-12757
忍不住地	-12758
恐怕早就	-12759
惊骇之色	-12760
成了一团	-12761
才有可能	-12762
拍了过去	-12763
斗尊阶别	-12764
旋即笑道	-12765
无奈摇头	-12766
无形波动	-12767
晶莹剔透	-12768
有些古怪	-12769
来到这里	-12770
泛起许些	-12771
然后方才	-12772
特别是当	-12773
玄重尺柄	-12774
率先对着	-12775
现在的她	-12776
现在的我	-12777
电光火石	-12778
略作迟疑	-12779
白袍老者	-12780
的望着这	-12781
的落在了	-12782
眉头一挑	-12783
破体而出	-12784
神秘强者	-12785
竖了起来	-12786
缓缓摊开	-12787
缓缓点头	-12788
萧炎学长	-12789
萧炎居然	-12790
萧炎浑身	-12791
萧炎背后	-12792
落下身来	-12793
虽然能够	-12794
袅袅升起	-12795
袖手旁观	-12796
话音一落	-12797
诸位弟兄	-12798
谈何容易	-12799
越来越浓	-12800
转身离去	-12801
迅速后退	-12802
还有什么	-12803
这种局面	-12804
这般变化	-12805
这般实力	-12806
迟疑的道	-12807
那铁护法	-12808
那鹜护法	-12809
顺着经脉	-12810
黄衣老者	-12811
黑色光柱	-12812
▁☆☆☆☆	-12813
▁对于这种	-12814
▁望着那在	-12815
▁望着那张	-12816
一旁的紫研	-12817
不过紧接着	-12818
也是拥有着	-12819
也是迅速的	-12820
以他的眼力	-12821
再清楚不过	-12822
凝固了下来	-12823
到了这一步	-12824
加列家族的	-12825
十来分钟后	-12826
却是让得他	-12827
在这种地方	-12828
天空之上的	-12829
恐怖的力量	-12830
抽搐了一下	-12831
拥有着异火	-12832
的望着下方	-12833
磅礴的斗气	-12834
紧闭的房门	-12835
肆无忌惮的	-12836
能够察觉到	-12837
脸色略有些	-12838
苍白的脸色	-12839
萧炎的意料	-12840
萧炎的身影	-12841
萧炎的速度	-12842
虽然不知道	-12843
这段时间的	-12844
不必要的麻烦	-12845
之中所蕴含的	-12846
也是令得萧炎	-12847
便是忍不住的	-12848
全文字版小说	-12849
天地间的能量	-12850
对着萧炎笑道	-12851
小紫晶翼狮王	-12852
收进纳戒之中	-12853
看上去极为的	-12854
萧炎瞥了一眼	-12855
青莲地心火的	-12856
▁萧炎眉头微皱	-12857
▁见到萧炎点头	-12858
贝齿轻咬着红唇	-12859
重重的点了点头	-12860
剧烈的波动了起来	-12861
在萧炎身上扫了扫	-12862
眼中也是闪过一抹	-12863
“,	-12864
▁嘭	-12865
■”	-12866
。—	-12867
一段	-12868
一行	-12869
万众	-12870
三条	-12871
五枚	-12872
五种	-12873
交轰	-12874
仓促	-12875
他了	-12876
传言	-12877
伸展	-12878
但若	-12879
傻子	-12880
入手	-12881
关押	-12882
冥顽	-12883
冰块	-12884
冷眼	-12885
分析	-12886
前所	-12887
半丝	-12888
单膝	-12889
参天	-12890
及时	-12891
反手	-12892
右脚	-12893
吐了	-12894
咯咯	-12895
商谈	-12896
喊价	-12897
增长	-12898
大意	-12899
天壤	-12900
奔涌	-12901
如雪	-12902
娇俏	-12903
娇羞	-12904
安然	-12905
寸寸	-12906
小兽	-12907
小炎	-12908
小看	-12909
就走	-12910
巨斧	-12911
师兄	-12912
干燥	-12913
建造	-12914
弱者	-12915
强如	-12916
待续	-12917
很有	-12918
微垂	-12919
怨气	-12920
怪笑	-12921
总的	-12922
恩情	-12923
悠长	-12924
成河	-12925
手法	-12926
手软	-12927
执着	-12928
扯了	-12929
投降	-12930
挤进	-12931
排斥	-12932
搽去	-12933
摧残	-12934
摸索	-12935
早了	-12936
早点	-12937
更大	-12938
月袍	-12939
有大	-12940
望来	-12941
极低	-12942
极品	-12943
气血	-12944
水平	-12945
池子	-12946
沉入	-12947
波澜	-12948
涛浪	-12949
溅起	-12950
源头	-12951
灌入	-12952
火辣	-12953
灭了	-12954
热情	-12955
爪牙	-12956
特意	-12957
珠子	-12958
生气	-12959
用处	-12960
畏惧	-12961
白白	-12962
直奔	-12963
直指	-12964
直视	-12965
相视	-12966
省份	-12967
看台	-12968
立足	-12969
红影	-12970
纯净	-12971
绝艳	-12972
群雄	-12973
英雄	-12974
莲子	-12975
血斧	-12976
行为	-12977
裔民	-12978
记起	-12979
请你	-12980
贴在	-12981
跟他	-12982
跪地	-12983
转回	-12984
迂腐	-12985
还敢	-12986
进度	-12987
那场	-12988
醒了	-12989
金帝	-12990
锐气	-12991
非凡	-12992
颇大	-12993
骨丹	-12994
高深	-12995
魂刁	-12996
鹰凰	-12997
黑夜	-12998
▁坐在	-12999
▁想到	-13000
▁此次	-13001
▁眼中	-13002
一步步	-13003
一直是	-13004
三个月	-13005
不像是	-13006
之一的	-13007
也都是	-13008
乱石堆	-13009
了些许	-13010
了几口	-13011
从这些	-13012
从远处	-13013
他不会	-13014
他并不	-13015
以后的	-13016
你所说	-13017
你还能	-13018
你这次	-13019
佩戴着	-13020
便是有	-13021
倒霉了	-13022
先前他	-13023
再难以	-13024
冥顽不	-13025
准确的	-13026
凶多吉	-13027
出手时	-13028
十来名	-13029
升腾着	-13030
升腾间	-13031
危险的	-13032
即便他	-13033
厚厚的	-13034
只是在	-13035
只能够	-13036
只要一	-13037
告辞了	-13038
嗅了嗅	-13039
嘴中的	-13040
在一块	-13041
在了其	-13042
在那片	-13043
城中心	-13044
多小时	-13045
够资格	-13046
大多都	-13047
天目山	-13048
太大了	-13049
好几次	-13050
娇笑道	-13051
完全是	-13052
寒铁棍	-13053
寻找着	-13054
将你们	-13055
将视线	-13056
少年那	-13057
已经将	-13058
庸置疑	-13059
弥漫出	-13060
弱多少	-13061
得让人	-13062
怨毒的	-13063
恨恨的	-13064
感知中	-13065
我可是	-13066
我记得	-13067
指不定	-13068
无止境	-13069
早知道	-13070
替萧炎	-13071
最主要	-13072
最前方	-13073
最喜欢	-13074
有没有	-13075
来试试	-13076
杰出的	-13077
树枝上	-13078
汇聚在	-13079
没有个	-13080
洪水般	-13081
测魂珠	-13082
深不见	-13083
温度的	-13084
的一步	-13085
的几人	-13086
的地图	-13087
的小嘴	-13088
的提升	-13089
的支持	-13090
的本事	-13091
的注意	-13092
的火能	-13093
的炼化	-13094
的疯狂	-13095
的细微	-13096
的脚步	-13097
的遮掩	-13098
的那块	-13099
瞩目的	-13100
瞬息后	-13101
等着你	-13102
简单的	-13103
而起的	-13104
自己在	-13105
至极致	-13106
若未闻	-13107
萧叔叔	-13108
赞叹道	-13109
起来了	-13110
运气好	-13111
还有些	-13112
这两日	-13113
这么大	-13114
这般的	-13115
进怀中	-13116
逐渐地	-13117
那些人	-13118
那就是	-13119
陆陆续	-13120
▁在这道	-13121
▁第九百	-13122
▁随着那	-13123
一些麻烦	-13124
一段距离	-13125
一道身着	-13126
与之抗衡	-13127
九星斗尊	-13128
也是一皱	-13129
也是没有	-13130
乳白色的	-13131
了几口气	-13132
了十几步	-13133
交给我吧	-13134
什么事了	-13135
他们已经	-13136
但却并不	-13137
便是因为	-13138
便是徐徐	-13139
便是自动	-13140
六阶魔兽	-13141
其中一人	-13142
出现了一	-13143
前踏一步	-13144
化为一片	-13145
十指交叉	-13146
双眼之中	-13147
另外一种	-13148
只是一名	-13149
嘴中吐出	-13150
在一道道	-13151
坐于其中	-13152
天壤之别	-13153
奈何不了	-13154
将其身体	-13155
居高临下	-13156
山老人的	-13157
并未因为	-13158
广场中央	-13159
彻底爆发	-13160
微微一顿	-13161
必然将会	-13162
忽然变得	-13163
惊天大战	-13164
感觉到了	-13165
手中长枪	-13166
抱了抱拳	-13167
拍卖会的	-13168
按照常理	-13169
撕裂而开	-13170
斗灵巅峰	-13171
斗王巅峰	-13172
斗皇实力	-13173
方才明白	-13174
无人能及	-13175
既然来了	-13176
最后停留	-13177
望着那道	-13178
极为庞大	-13179
模糊黑影	-13180
沙漠之中	-13181
清秀脸庞	-13182
潮水一般	-13183
然后开始	-13184
玄阶中级	-13185
玄阶斗技	-13186
现出身来	-13187
白色雾气	-13188
的人来说	-13189
的那些人	-13190
目光阴森	-13191
眼波流转	-13192
究竟是谁	-13193
空间扭曲	-13194
竟然还能	-13195
紫色能量	-13196
终于是被	-13197
而且这种	-13198
能够办到	-13199
脸庞也是	-13200
脸颊也是	-13201
药老所说	-13202
萧炎双手	-13203
萧炎嘴中	-13204
萧炎急忙	-13205
街道之上	-13206
被云岚宗	-13207
诡异笑容	-13208
转身便是	-13209
轻声笑道	-13210
迅速消散	-13211
这样说来	-13212
这般年龄	-13213
这黑角域	-13214
远古噬虫	-13215
那个层次	-13216
都是为之	-13217
都是因为	-13218
金帝焚天	-13219
针锋相对	-13220
长的时间	-13221
飞行速度	-13222
鬼魅一般	-13223
魂殿护法	-13224
黄衣男子	-13225
黑衣尊者	-13226
▁第一千零	-13227
一股浓郁的	-13228
全身包裹在	-13229
凝重了起来	-13230
十丈庞大的	-13231
可怕的劲风	-13232
在斗气大陆	-13233
感应了一下	-13234
所有的目光	-13235
手掌猛的一	-13236
手掌紧握着	-13237
揉了揉额头	-13238
撞击在一起	-13239
旋即脸庞上	-13240
极快的速度	-13241
沉默了下来	-13242
没想到如今	-13243
消失的背影	-13244
炽热的高温	-13245
狠狠一咬牙	-13246
猛的一咬牙	-13247
玄空子三人	-13248
的力量之感	-13249
竟然还真的	-13250
轻点了点头	-13251
近在咫尺的	-13252
还有着一个	-13253
那里的空间	-13254
隐隐感觉到	-13255
▁似是察觉到	-13256
三名斗王强者	-13257
也是有着一些	-13258
也是越来越浓	-13259
凝重的望着那	-13260
天焚炼气塔中	-13261
并未持续多久	-13262
萧炎眉头一挑	-13263
萧炎耸了耸肩	-13264
面露沉吟之色	-13265
▁听得萧炎的话	-13266
▁萧炎眼眸微眯	-13267
似是想起了什么	-13268
斗尊阶别的强者	-13269
......,“	-13270
一届	-13271
一是	-13272
万物	-13273
三阶	-13274
不像	-13275
不明	-13276
两处	-13277
个屁	-13278
之利	-13279
之差	-13280
于耳	-13281
云淡	-13282
五六	-13283
五章	-13284
人情	-13285
余光	-13286
余地	-13287
侧目	-13288
倒在	-13289
做事	-13290
冰刺	-13291
冰火	-13292
冰雕	-13293
几丈	-13294
几米	-13295
分化	-13296
分裂	-13297
别无	-13298
到头	-13299
劈下	-13300
功能	-13301
助我	-13302
半响	-13303
占地	-13304
原石	-13305
双头	-13306
取走	-13307
古华	-13308
名震	-13309
吞下	-13310
含着	-13311
吹得	-13312
商量	-13313
喝彩	-13314
圆球	-13315
地黄	-13316
坚毅	-13317
外形	-13318
外物	-13319
多大	-13320
大大	-13321
大气	-13322
大碍	-13323
大道	-13324
夭行	-13325
头的	-13326
婚约	-13327
孕灵	-13328
安宁	-13329
将人	-13330
尊贵	-13331
少见	-13332
屹立	-13333
巨声	-13334
巨鹰	-13335
强了	-13336
当事	-13337
忿忿	-13338
恐慌	-13339
所凝	-13340
打造	-13341
抚摸	-13342
抬脚	-13343
拼尽	-13344
探子	-13345
数人	-13346
整合	-13347
昏暗	-13348
有胆	-13349
朦胧	-13350
杀伤	-13351
极重	-13352
欲火	-13353
洪烈	-13354
淡写	-13355
游历	-13356
滑腻	-13357
滚动	-13358
滴落	-13359
火幕	-13360
火狼	-13361
灰白	-13362
灵物	-13363
炸了	-13364
烤鱼	-13365
爱慕	-13366
珍惜	-13367
瓦解	-13368
生涩	-13369
白日	-13370
白烟	-13371
的对	-13372
的来	-13373
的紫	-13374
皓腕	-13375
皮纸	-13376
皱着	-13377
皱褶	-13378
监视	-13379
相救	-13380
盾牌	-13381
眼睑	-13382
码字	-13383
碰见	-13384
第八	-13385
精华	-13386
精灵	-13387
素手	-13388
结交	-13389
翼翅	-13390
老眼	-13391
而被	-13392
耳膜	-13393
肚中	-13394
至此	-13395
舌尖	-13396
蛮腰	-13397
蠢货	-13398
血痕	-13399
行了	-13400
被我	-13401
被毁	-13402
要强	-13403
角度	-13404
触着	-13405
计较	-13406
该是	-13407
说句	-13408
谁胜	-13409
谷口	-13410
轮回	-13411
轻踏	-13412
这下	-13413
进而	-13414
远胜	-13415
那头	-13416
那抹	-13417
那时	-13418
酒杯	-13419
长空	-13420
间隙	-13421
闻风	-13422
防线	-13423
降世	-13424
雍容	-13425
静止	-13426
领着	-13427
骷墓	-13428
鼎盖	-13429
?’,	-13430
▁一处	-13431
▁今日	-13432
一一一	-13433
一抱拳	-13434
一次性	-13435
不至于	-13436
与韩枫	-13437
丰满的	-13438
他不是	-13439
似乎对	-13440
体内所	-13441
你这种	-13442
僵硬的	-13443
其中那	-13444
化形丹	-13445
压抑住	-13446
受到的	-13447
古圣城	-13448
只要他	-13449
可一旦	-13450
告诉他	-13451
告诉我	-13452
呜呜的	-13453
在帝国	-13454
墙壁上	-13455
头一次	-13456
好大的	-13457
好小子	-13458
如何的	-13459
如此说	-13460
将一名	-13461
少有人	-13462
居然敢	-13463
山要塞	-13464
影响力	-13465
很显然	-13466
惊叹道	-13467
惊喜的	-13468
想到过	-13469
感应着	-13470
戏谑道	-13471
我也会	-13472
扯了扯	-13473
掌控着	-13474
提升到	-13475
无数倍	-13476
服用了	-13477
来源于	-13478
极重的	-13479
果真是	-13480
正好是	-13481
殷红的	-13482
汹涌的	-13483
波动的	-13484
漆黑如	-13485
灰色的	-13486
炮弹般	-13487
然后被	-13488
狂暴的	-13489
现在地	-13490
生灵之	-13491
的丹雷	-13492
的人头	-13493
的伤势	-13494
的凝聚	-13495
的地带	-13496
的徽章	-13497
的掌控	-13498
的方法	-13499
的火毒	-13500
的火热	-13501
的眉头	-13502
的眼眸	-13503
的表情	-13504
的躯体	-13505
的进入	-13506
直接从	-13507
真的很	-13508
碎金吟	-13509
等着吧	-13510
紫研那	-13511
而变得	-13512
胜利者	-13513
花婆婆	-13514
若是换	-13515
药星极	-13516
莫大的	-13517
莫夭行	-13518
虚幻的	-13519
被发现	-13520
视线中	-13521
记忆尤	-13522
说不出	-13523
说这些	-13524
身后那	-13525
这个月	-13526
这二人	-13527
这古族	-13528
速度快	-13529
避开了	-13530
那一身	-13531
那老夫	-13532
那里面	-13533
那韩枫	-13534
都有着	-13535
闭上了	-13536
闷哼声	-13537
难道还	-13538
颇大的	-13539
一些时间	-13540
一眼看去	-13541
一股极端	-13542
一股浓郁	-13543
一起出手	-13544
七星斗圣	-13545
万药山脉	-13546
不堪一击	-13547
两日时间	-13548
也并不是	-13549
也是一脸	-13550
五色火焰	-13551
仅仅是一	-13552
便是开始	-13553
修炼印结	-13554
凝聚而成	-13555
几个闪烁	-13556
分散而开	-13557
即便是那	-13558
即将到达	-13559
却是颇为	-13560
可依然是	-13561
后背之上	-13562
吞噬而进	-13563
咔嚓声响	-13564
在这上面	-13565
如今更是	-13566
如既往的	-13567
完全没有	-13568
实力不弱	-13569
实力如何	-13570
带着些许	-13571
强上一些	-13572
彻底消散	-13573
微微一抖	-13574
微微抖动	-13575
怎么样了	-13576
怒劈而下	-13577
感到震撼	-13578
我不知道	-13579
我们三人	-13580
手掌紧握	-13581
打定主意	-13582
抓紧时间	-13583
投给斗破	-13584
提升一星	-13585
旋即一股	-13586
旋即再度	-13587
旋即身体	-13588
无风自动	-13589
既然你们	-13590
星辰之力	-13591
更是直接	-13592
最后一道	-13593
有些本事	-13594
有些麻烦	-13595
有着一座	-13596
有着一枚	-13597
有着一股	-13598
有着无数	-13599
望着面前	-13600
来的萧炎	-13601
没想到啊	-13602
流淌而出	-13603
海老先生	-13604
淡紫色的	-13605
漆黑锁链	-13606
炽热能量	-13607
然而现在	-13608
猛然暴涨	-13609
的大眼睛	-13610
的对着那	-13611
的确很强	-13612
看向萧炎	-13613
砸了过去	-13614
神品血脉	-13615
空间突然	-13616
终于是要	-13617
能够将之	-13618
脚步刚刚	-13619
脸色变幻	-13620
若是任由	-13621
莲步轻移	-13622
萧炎心神	-13623
萧炎有着	-13624
萧炎肩膀	-13625
虚空雷池	-13626
虽然如今	-13627
表面上的	-13628
袖袍挥动	-13629
话到最后	-13630
话音一转	-13631
诡异浮现	-13632
诡异莫测	-13633
谁能想到	-13634
转移到了	-13635
轻拍了拍	-13636
迅速流逝	-13637
这一地步	-13638
这般恐怖	-13639
远古天凰	-13640
那便多谢	-13641
都将会被	-13642
韩冲等人	-13643
魂玉等人	-13644
...”-	-13645
▁在萧炎的	-13646
▁见到药老	-13647
一个巨大的	-13648
一品炼药师	-13649
一道道人影	-13650
与纳兰嫣然	-13651
丹会的冠军	-13652
他心中清楚	-13653
传来的方向	-13654
便是飞快的	-13655
先前的那番	-13656
几乎是瞬间	-13657
出人意料的	-13658
厄难毒体的	-13659
在这片天地	-13660
在这种场合	-13661
奇异的波动	-13662
如此轻易的	-13663
属于自己的	-13664
弥漫着一种	-13665
惊人的速度	-13666
惊愕目光中	-13667
扭了扭脖子	-13668
最后终于是	-13669
有着不少人	-13670
望向萧炎的	-13671
根本就没有	-13672
狮虎碎金吟	-13673
的出现在了	-13674
的确是有些	-13675
看上去似乎	-13676
紧紧的握着	-13677
终于是缓缓	-13678
缓缓的对着	-13679
而伴随着其	-13680
脚步蹬蹬的	-13681
脸庞上却是	-13682
萧炎体内的	-13683
这一路而来	-13684
连绵不断的	-13685
▁苦笑了一声	-13686
不对劲的地方	-13687
也是略微有些	-13688
出现在面前的	-13689
所展现出来的	-13690
是何等的恐怖	-13691
有些无奈的道	-13692
望着天空上的	-13693
碧绿色的火焰	-13694
苍白的脸庞上	-13695
萧炎眉头一皱	-13696
那么便是能够	-13697
我所料不差的话	-13698
略微沉吟了一下	-13699
的看了萧炎一眼	-13700
▁无奈的摇了摇头	-13701
全文字版小说首发	-13702
▁心中掠过这道念头	-13703
__	-13704
ch	-13705
ng	-13706
yy	-13707
▁是	-13708
▁站	-13709
一搏	-13710
一花	-13711
一通	-13712
下移	-13713
不免	-13714
不减	-13715
中指	-13716
中毒	-13717
之功	-13718
之遥	-13719
书评	-13720
了哦	-13721
于你	-13722
交替	-13723
交道	-13724
你地	-13725
你将	-13726
俊美	-13727
保重	-13728
充裕	-13729
全是	-13730
公平	-13731
兽吼	-13732
再过	-13733
冰球	-13734
冷肃	-13735
剑芒	-13736
勃勃	-13737
十分	-13738
十名	-13739
双耳	-13740
可曾	-13741
台阶	-13742
名讳	-13743
向来	-13744
哪天	-13745
喝斥	-13746
嘶声	-13747
四五	-13748
四肢	-13749
围拢	-13750
场外	-13751
墓府	-13752
壁上	-13753
多多	-13754
大摆	-13755
奇的	-13756
奉劝	-13757
好强	-13758
妖啸	-13759
妹妹	-13760
宝丹	-13761
宰了	-13762
小岛	-13763
小点	-13764
就跑	-13765
尸身	-13766
尽杀	-13767
展露	-13768
山寨	-13769
工会	-13770
巨浪	-13771
已成	-13772
平复	-13773
得手	-13774
徽做	-13775
忍住	-13776
恶魔	-13777
我等	-13778
战意	-13779
所化	-13780
打发	-13781
打手	-13782
护持	-13783
提及	-13784
擒拿	-13785
放开	-13786
整条	-13787
无所	-13788
昏沉	-13789
星盘	-13790
显的	-13791
显眼	-13792
木屑	-13793
杀招	-13794
查看	-13795
桃花	-13796
正如	-13797
死路	-13798
毒性	-13799
比喻	-13800
法子	-13801
法诀	-13802
洗髓	-13803
滑落	-13804
火凰	-13805
火罩	-13806
灰暗	-13807
灼烧	-13808
爪风	-13809
狂奔	-13810
玉立	-13811
的山	-13812
石亭	-13813
移向	-13814
符合	-13815
第九	-13816
简略	-13817
算你	-13818
紧接	-13819
老僧	-13820
自燃	-13821
节节	-13822
落到	-13823
蛇巢	-13824
蠢欲	-13825
血云	-13826
被阻	-13827
认可	-13828
诅咒	-13829
贵客	-13830
踏前	-13831
身亡	-13832
轰得	-13833
这笔	-13834
连三	-13835
透露	-13836
道歉	-13837
遮天	-13838
邋遢	-13839
那自	-13840
酸麻	-13841
阴厉	-13842
阻止	-13843
雪花	-13844
雷锤	-13845
靠前	-13846
顶着	-13847
颇深	-13848
颇难	-13849
颢抖	-13850
飓风	-13851
骨之	-13852
魂焱	-13853
鹰翼	-13854
黄金	-13855
龙威	-13856
cha	-13857
▁一口	-13858
▁云山	-13859
▁今天	-13860
▁沉默	-13861
▁空间	-13862
▁老者	-13863
▁韩雪	-13864
一拱手	-13865
下面的	-13866
不下来	-13867
不客气	-13868
不言而	-13869
不过以	-13870
与自己	-13871
两者间	-13872
之人的	-13873
也是如	-13874
他体内	-13875
他唯一	-13876
他并未	-13877
他有着	-13878
以此来	-13879
但依旧	-13880
低级的	-13881
你也别	-13882
你可是	-13883
你找死	-13884
其心中	-13885
冲击力	-13886
出这种	-13887
却并非	-13888
却是一	-13889
却是比	-13890
却皆是	-13891
压制住	-13892
压抑的	-13893
又是要	-13894
双眼中	-13895
反而还	-13896
可以说	-13897
可还没	-13898
后背心	-13899
和他们	-13900
响起了	-13901
嘟囔道	-13902
嘹亮的	-13903
回春散	-13904
在一些	-13905
在一片	-13906
在丹塔	-13907
在瞬间	-13908
在身上	-13909
在这一	-13910
城墙上	-13911
大会的	-13912
天魔蝎	-13913
太过分	-13914
密林中	-13915
对这个	-13916
将体内	-13917
将心中	-13918
小拳头	-13919
小炎子	-13920
小腹处	-13921
就算你	-13922
尽可能	-13923
尽数被	-13924
尽杀绝	-13925
强忍着	-13926
很清楚	-13927
怪笑声	-13928
想知道	-13929
我们会	-13930
我古族	-13931
所发生	-13932
所弥漫	-13933
手掌在	-13934
指尖处	-13935
描淡写	-13936
摇大摆	-13937
收进了	-13938
放眼中	-13939
旋即将	-13940
无底洞	-13941
更新到	-13942
有了这	-13943
望向了	-13944
森冷的	-13945
汇聚成	-13946
流淌着	-13947
淡青色	-13948
潮水般	-13949
火山口	-13950
然无存	-13951
的一人	-13952
的一条	-13953
的内院	-13954
的决定	-13955
的区域	-13956
的大会	-13957
的小手	-13958
的巨龙	-13959
的心情	-13960
的旋转	-13961
的药香	-13962
的那片	-13963
真是要	-13964
着那股	-13965
第一人	-13966
等着我	-13967
粗略的	-13968
系魔核	-13969
给予了	-13970
而在他	-13971
自己地	-13972
若无其	-13973
若是连	-13974
落下时	-13975
落在那	-13976
虽说在	-13977
蛇一般	-13978
蠕动间	-13979
蠢蠢欲	-13980
赶路中	-13981
身体时	-13982
轮不到	-13983
轻灵的	-13984
还是在	-13985
道人影	-13986
那有些	-13987
那能量	-13988
那近乎	-13989
错愕的	-13990
额头处	-13991
▁宽敞的	-13992
一个个的	-13993
一个势力	-13994
一些势力	-13995
一流势力	-13996
一道残影	-13997
七星斗宗	-13998
不太清楚	-13999
不绝于耳	-14000
不过想要	-14001
九品丹药	-14002
也是明白	-14003
从未有过	-14004
他们两人	-14005
他的气息	-14006
他老人家	-14007
令得自己	-14008
似是知道	-14009
便是被其	-14010
倒是颇为	-14011
元气大伤	-14012
光芒闪烁	-14013
六星斗皇	-14014
冥顽不灵	-14015
冰河尊者	-14016
准备好了	-14017
几乎是一	-14018
几年时间	-14019
划破空间	-14020
却是刚好	-14021
只要不是	-14022
只见得其	-14023
吞噬炼化	-14024
周围的人	-14025
喷发而出	-14026
在了其中	-14027
在我面前	-14028
太过担心	-14029
对着身后	-14030
将自己的	-14031
就算是以	-14032
岩浆湖泊	-14033
带起一阵	-14034
弥漫开来	-14035
得越来越	-14036
微微一惊	-14037
恐怕不会	-14038
恭声应道	-14039
惊疑不定	-14040
慢吞吞的	-14041
我们萧家	-14042
我黑皇宗	-14043
手掌对着	-14044
放眼中州	-14045
放眼整个	-14046
整个广场	-14047
无形之火	-14048
早有准备	-14049
有着一名	-14050
极为不错	-14051
极为清楚	-14052
毁灭之力	-14053
涌上许些	-14054
溢出一抹	-14055
激动之色	-14056
火焰人影	-14057
然后这才	-14058
犹如一条	-14059
犹如火山	-14060
生不如死	-14061
的成功率	-14062
目光环视	-14063
直到现在	-14064
看其模样	-14065
瞬间变得	-14066
突如其来	-14067
算得上是	-14068
缓步走向	-14069
缓缓闭目	-14070
翡翠般的	-14071
肯定不会	-14072
至今为止	-14073
良久之后	-14074
苏千等人	-14075
荡然无存	-14076
药族长老	-14077
萧炎低声	-14078
萧炎几人	-14079
萧炎略微	-14080
萧炎眼瞳	-14081
萧炎眼角	-14082
萧炎笑着	-14083
萧炎脚掌	-14084
萧炎自然	-14085
血流成河	-14086
走上前来	-14087
迅速的将	-14088
这些人的	-14089
这些都是	-14090
这片山脉	-14091
这种状态	-14092
这等势力	-14093
这般想着	-14094
那些长老	-14095
雁九行翼	-14096
雅妃小姐	-14097
飘飞而出	-14098
高台之上	-14099
高阶丹药	-14100
魂殿之人	-14101
黄袍老者	-14102
▁“...	-14103
▁斗破苍穹	-14104
▁然而虽然	-14105
▁萧炎心中	-14106
一股恐怖的	-14107
不到哪里去	-14108
不敢有丝毫	-14109
也是相当之	-14110
也是相当的	-14111
倒是没什么	-14112
八品炼药师	-14113
出现在手中	-14114
十几道身影	-14115
却是在此刻	-14116
吴昊与琥嘉	-14117
在那一道道	-14118
居然直接是	-14119
左右的时间	-14120
并非是什么	-14121
强悍的气息	-14122
心头也是一	-14123
忍不住有些	-14124
惊骇的发现	-14125
截然不同的	-14126
所在的地方	-14127
斜瞥了一眼	-14128
旋即沉声道	-14129
林修崖等人	-14130
淡淡的笑声	-14131
炼制丹药时	-14132
炼制出来的	-14133
的修炼之法	-14134
的修炼天赋	-14135
的望着远处	-14136
真要说起来	-14137
萧炎偏过头	-14138
蛇巢佣兵团	-14139
表现出来的	-14140
那也就是说	-14141
都是出现了	-14142
金帝焚天炎	-14143
面前的青年	-14144
▁无数道目光	-14145
▁第一千一百	-14146
▁第一千五百	-14147
▁随着萧炎的	-14148
两名斗王强者	-14149
以最快的速度	-14150
出现的那一霎	-14151
吸了一口冷气	-14152
惊骇的目光中	-14153
所凝聚而成的	-14154
按照这种速度	-14155
旋即目光转向	-14156
眼瞳骤然一缩	-14157
都是在这一刻	-14158
缓缓的出现在了	-14159
萧炎的灵魂力量	-14160
萧炎笑着摇了摇头	-14161
萧炎苦笑着摇了摇头	-14162
萧炎这才松了一口气	-14163
货真价实的斗宗强者	-14164
:”	-14165
▁轰	-14166
一瞟	-14167
一笔	-14168
三叉	-14169
三次	-14170
不平	-14171
不清	-14172
不露	-14173
东阁	-14174
两大	-14175
为这	-14176
之能	-14177
也将	-14178
习会	-14179
书籍	-14180
乱流	-14181
争取	-14182
亲手	-14183
他从	-14184
他都	-14185
仙子	-14186
传下	-14187
伦比	-14188
但你	-14189
佛克	-14190
作者	-14191
供奉	-14192
俏鼻	-14193
倒吸	-14194
借着	-14195
催化	-14196
光亮	-14197
兴师	-14198
冰霜	-14199
凤毛	-14200
凹凸	-14201
击破	-14202
利器	-14203
刮过	-14204
加强	-14205
加注	-14206
勇气	-14207
化翼	-14208
千米	-14209
占了	-14210
压低	-14211
取决	-14212
变缓	-14213
口舌	-14214
古谦	-14215
叫我	-14216
叮叮	-14217
听出	-14218
商铺	-14219
噗通	-14220
回应	-14221
圈子	-14222
在哪	-14223
境地	-14224
多管	-14225
大怒	-14226
大感	-14227
大街	-14228
天了	-14229
契机	-14230
她所	-14231
孙女	-14232
实现	-14233
密集	-14234
寒碜	-14235
小队	-14236
尚未	-14237
尤为	-14238
巨尾	-14239
帮他	-14240
干的	-14241
年少	-14242
并没	-14243
幽香	-14244
床上	-14245
延续	-14246
心丹	-14247
心旷	-14248
必杀	-14249
必死	-14250
怒雷	-14251
怕你	-14252
情形	-14253
成丹	-14254
手势	-14255
扑面	-14256
抗性	-14257
抽离	-14258
招手	-14259
挤压	-14260
振兴	-14261
振奋	-14262
挺翘	-14263
接二	-14264
撒野	-14265
收下	-14266
救出	-14267
整顿	-14268
无事	-14269
无情	-14270
晕眩	-14271
晴叶	-14272
木灵	-14273
未完	-14274
未尽	-14275
机器	-14276
极有	-14277
林惔	-14278
枯皮	-14279
枯黄	-14280
柔弱	-14281
栏杆	-14282
根茎	-14283
模式	-14284
横冲	-14285
止步	-14286
每隔	-14287
气急	-14288
水面	-14289
沾上	-14290
涨动	-14291
深有	-14292
深陷	-14293
火堆	-14294
照料	-14295
爹爹	-14296
片的	-14297
留着	-14298
的空	-14299
相碰	-14300
真当	-14301
真能	-14302
眼露	-14303
瞟过	-14304
瞪着	-14305
空手	-14306
立马	-14307
等了	-14308
筛选	-14309
精明	-14310
糟了	-14311
紧身	-14312
紫灵	-14313
紫芒	-14314
线条	-14315
缠住	-14316
翻身	-14317
者的	-14318
而你	-14319
肉痛	-14320
腥风	-14321
自讨	-14322
至关	-14323
至极	-14324
草原	-14325
血剑	-14326
裂嘴	-14327
裂山	-14328
覆灭	-14329
警告	-14330
调皮	-14331
赞同	-14332
走来	-14333
这便	-14334
远离	-14335
速速	-14336
那具	-14337
邪火	-14338
释然	-14339
钟吟	-14340
锊开	-14341
锐利	-14342
闯关	-14343
闯过	-14344
阴声	-14345
阴毒	-14346
雄伟	-14347
集中	-14348
雷劫	-14349
需求	-14350
靠的	-14351
音落	-14352
顶部	-14353
颓废	-14354
麦迪	-14355
龙目	-14356
!!”	-14357
:““	-14358
?”,	-14359
“』”	-14360
▁古河	-14361
▁女子	-14362
▁既然	-14363
▁毕竟	-14364
▁没有	-14365
▁满场	-14366
▁玉手	-14367
▁眼神	-14368
▁美眸	-14369
▁翎泉	-14370
▁说着	-14371
▁这位	-14372
▁随手	-14373
▁青鳞	-14374
上来说	-14375
不小心	-14376
不得已	-14377
与一名	-14378
与以前	-14379
之不上	-14380
乏一些	-14381
也就不	-14382
也是自	-14383
了瞬间	-14384
从嘴角	-14385
他们会	-14386
他手中	-14387
仿佛是	-14388
优雅的	-14389
低喝道	-14390
佛克兰	-14391
你打算	-14392
便交给	-14393
倔强的	-14394
先生的	-14395
全力以	-14396
全都是	-14397
其上面	-14398
冰凉的	-14399
凭什么	-14400
创始人	-14401
到手了	-14402
前所未	-14403
剩下的	-14404
去一趟	-14405
古朴的	-14406
可依然	-14407
可怕了	-14408
可想要	-14409
周遭的	-14410
啸之声	-14411
嘴一张	-14412
四人的	-14413
团火焰	-14414
地强者	-14415
地心珠	-14416
地盯着	-14417
地速度	-14418
地青年	-14419
大声道	-14420
大平原	-14421
大规模	-14422
头也不	-14423
完全被	-14424
客气了	-14425
对不起	-14426
小看了	-14427
尖利的	-14428
希望吧	-14429
平台上	-14430
当日在	-14431
很明显	-14432
心旷神	-14433
悬浮着	-14434
成这样	-14435
或者说	-14436
战斗时	-14437
所化的	-14438
控制的	-14439
摆放着	-14440
数百年	-14441
旋转的	-14442
是需要	-14443
有把握	-14444
望过来	-14445
杀伤力	-14446
来的人	-14447
来这里	-14448
某一个	-14449
此处的	-14450
残留的	-14451
残留着	-14452
没料到	-14453
浅浅的	-14454
滚动着	-14455
火焰中	-14456
火红的	-14457
父亲的	-14458
生命力	-14459
的一对	-14460
的二人	-14461
的凶悍	-14462
的山脉	-14463
的心思	-14464
的眼神	-14465
的程度	-14466
的血海	-14467
的血红	-14468
的那丝	-14469
的黑云	-14470
第二日	-14471
简单单	-14472
美丽的	-14473
翻腾着	-14474
而他们	-14475
而其中	-14476
能够被	-14477
虽然我	-14478
被震得	-14479
见面时	-14480
让得你	-14481
让得我	-14482
诱惑力	-14483
谁胜谁	-14484
赶过来	-14485
超越了	-14486
足够了	-14487
转向那	-14488
轻笑声	-14489
过去了	-14490
这三种	-14491
这名字	-14492
那名为	-14493
陡然自	-14494
险险的	-14495
高耸的	-14496
魂灭生	-14497
黑印城	-14498
黑皇阁	-14499
▁一行人	-14500
一些强者	-14501
一张脸庞	-14502
一股雄浑	-14503
三个小时	-14504
三大族群	-14505
上云岚宗	-14506
不仅未曾	-14507
不怀好意	-14508
不知道这	-14509
不言而喻	-14510
不过我想	-14511
九色丹雷	-14512
也不至于	-14513
也是急速	-14514
也是有所	-14515
交出来吧	-14516
他们心中	-14517
他同样是	-14518
何种地步	-14519
侥幸而已	-14520
先前那般	-14521
先前那道	-14522
光柱之中	-14523
冒出来的	-14524
几乎都是	-14525
出了一些	-14526
出现之后	-14527
划起一抹	-14528
化为粉末	-14529
半圣层次	-14530
却是必须	-14531
却是瞧得	-14532
双眼微眯	-14533
反而是在	-14534
只能看见	-14535
听得这话	-14536
咆哮之声	-14537
喘着粗气	-14538
嘴中喷出	-14539
四星斗宗	-14540
地心魂髓	-14541
如今却是	-14542
如此之多	-14543
实力强悍	-14544
密室之中	-14545
居然如此	-14546
展动身形	-14547
已经能够	-14548
巴掌大小	-14549
并算不得	-14550
应了一声	-14551
应该不是	-14552
彩裙女子	-14553
怪笑一声	-14554
想象中的	-14555
我们可以	-14556
我知道你	-14557
所以只能	-14558
拦住他们	-14559
指向萧炎	-14560
接二连三	-14561
新生队伍	-14562
施展斗气	-14563
旋即也是	-14564
旋即对着	-14565
暴涌而起	-14566
最后一种	-14567
有些关系	-14568
木盆之中	-14569
未完待续	-14570
极为不弱	-14571
根本难以	-14572
森然一笑	-14573
注视之中	-14574
淡蓝色的	-14575
漆黑裂缝	-14576
火焰之内	-14577
灰紫双眸	-14578
灵魂光团	-14579
犹如是在	-14580
王族血脉	-14581
现在已经	-14582
白衣青年	-14583
的修炼室	-14584
的前提下	-14585
的参赛者	-14586
的小脑袋	-14587
的小脸上	-14588
的那些事	-14589
皆是一愣	-14590
盘腿坐下	-14591
目光冰冷	-14592
看那模样	-14593
究竟是否	-14594
突破斗皇	-14595
简简单单	-14596
缓步上前	-14597
缓缓升空	-14598
缓缓的自	-14599
缓缓行去	-14600
而在这等	-14601
而在这般	-14602
而萧炎的	-14603
联盟之中	-14604
肆无忌惮	-14605
萧炎想要	-14606
萧炎脑袋	-14607
血腥味道	-14608
谁都明白	-14609
赶尽杀绝	-14610
距离萧炎	-14611
身形消失	-14612
这种异火	-14613
这种时刻	-14614
这道身影	-14615
那些药材	-14616
闭目养神	-14617
陡然响起	-14618
陡然暴涨	-14619
雄浑气势	-14620
青色岩浆	-14621
面色却是	-14622
顿时传出	-14623
首次所见	-14624
骸骨山脉	-14625
魔兽界中	-14626
黑暗之中	-14627
▁在那众多	-14628
▁天际之上	-14629
▁碧绿火焰	-14630
▁萧炎一怔	-14631
▁话到最后	-14632
三千莲心火	-14633
不可察觉的	-14634
不知道多少	-14635
他也是能够	-14636
他自然也是	-14637
令得人有种	-14638
传来的剧痛	-14639
但却并没有	-14640
体内斗气的	-14641
便是狠狠的	-14642
僵硬了下来	-14643
冰河谷弟子	-14644
凝聚成了一	-14645
加刑天等人	-14646
古青阳等人	-14647
周围的一些	-14648
四面八方的	-14649
在心中暗自	-14650
在魔兽山脉	-14651
如此庞大的	-14652
小医仙二人	-14653
岩浆世界中	-14654
形成了一个	-14655
得干干净净	-14656
得没有丝毫	-14657
恐怖的能量	-14658
恐怖的速度	-14659
手臂粗壮的	-14660
扬了扬下巴	-14661
掩饰不住的	-14662
望着这一幕	-14663
正在逐渐的	-14664
流露出一抹	-14665
浩瀚的斗气	-14666
深蓝色火焰	-14667
清脆的声响	-14668
炼药师来说	-14669
炽热的火焰	-14670
琥嘉与吴昊	-14671
的斗气大陆	-14672
的望着那些	-14673
的空间通道	-14674
目瞪口呆的	-14675
直直的盯着	-14676
红润的小嘴	-14677
终于是逐渐	-14678
脸庞上顿时	-14679
若非是有着	-14680
那魂殿殿主	-14681
陀舍古帝的	-14682
随时准备着	-14683
▁第一千三百	-14684
一名斗王强者	-14685
传得沸沸扬扬	-14686
使用灵魂力量	-14687
却是摇了摇头	-14688
却是让得萧炎	-14689
发生了什么事	-14690
在这个话题上	-14691
尴尬的笑了笑	-14692
弗兰克与奥托	-14693
我也不太清楚	-14694
旋即身形一动	-14695
最后化为一道	-14696
炼药师公会的	-14697
看了一眼萧炎	-14698
继续码第三更	-14699
脸庞上的表情	-14700
若是一个不慎	-14701
萧炎却是一笑	-14702
萧炎身形一动	-14703
话音刚刚落下	-14704
进入魔兽山脉	-14705
迟疑了一下后	-14706
造成什么伤害	-14707
▁听得萧炎这话	-14708
缓缓的摇了摇头	-14709
贝齿紧咬着红唇	-14710
对着萧炎暴射而去	-14711
深深的吸了一口气	-14712
脸庞上也是浮现一抹	-14713
20	-14714
▁拳	-14715
▁萧	-14716
。|	-14717
一亮	-14718
一尺	-14719
一流	-14720
一红	-14721
一霎	-14722
万段	-14723
三岛	-14724
不分	-14725
不择	-14726
不来	-14727
不禁	-14728
丢脸	-14729
两方	-14730
中立	-14731
中那	-14732
为他	-14733
之首	-14734
也被	-14735
云刹	-14736
五品	-14737
亭亭	-14738
人都	-14739
仰起	-14740
众所	-14741
会议	-14742
住所	-14743
修岩	-14744
做出	-14745
偿失	-14746
兽灵	-14747
决计	-14748
准确	-14749
切尔	-14750
利落	-14751
到他	-14752
刷子	-14753
前五	-14754
剑影	-14755
功劳	-14756
动力	-14757
半天	-14758
半步	-14759
单人	-14760
厄丹	-14761
压在	-14762
反复	-14763
取的	-14764
叱道	-14765
吆喝	-14766
呐呐	-14767
唰唰	-14768
喜怒	-14769
器官	-14770
在的	-14771
在被	-14772
地所	-14773
地眼	-14774
场上	-14775
垂下	-14776
声誉	-14777
声调	-14778
大群	-14779
天啊	-14780
奉陪	-14781
奋斗	-14782
契合	-14783
好歹	-14784
如愿	-14785
娃娃	-14786
完蛋	-14787
客人	-14788
寂寥	-14789
小路	-14790
尾声	-14791
屋顶	-14792
峡谷	-14793
巨尺	-14794
师徒	-14795
平坦	-14796
底下	-14797
底部	-14798
延长	-14799
异香	-14800
弊端	-14801
强抢	-14802
彼伏	-14803
得多	-14804
得心	-14805
微竖	-14806
总体	-14807
恢弘	-14808
惊才	-14809
意犹	-14810
感冒	-14811
成效	-14812
战力	-14813
打消	-14814
把那	-14815
护送	-14816
招待	-14817
拳印	-14818
拿到	-14819
挂在	-14820
指点	-14821
捕获	-14822
损耗	-14823
摆动	-14824
摸清	-14825
收手	-14826
故而	-14827
救你	-14828
新人	-14829
无损	-14830
无耻	-14831
是么	-14832
暗地	-14833
有力	-14834
有条	-14835
有那	-14836
木盒	-14837
极短	-14838
果子	-14839
枪影	-14840
此起	-14841
死神	-14842
比拼	-14843
水柱	-14844
沙漏	-14845
洒落	-14846
淘汰	-14847
淡红	-14848
深藏	-14849
混战	-14850
湮粉	-14851
源气	-14852
源自	-14853
潜伏	-14854
灵琳	-14855
炎刺	-14856
烙印	-14857
烟花	-14858
狭长	-14859
玩笑	-14860
痛快	-14861
皱纹	-14862
相连	-14863
眼尖	-14864
石座	-14865
碎尸	-14866
管事	-14867
类型	-14868
红袍	-14869
组成	-14870
结印	-14871
羽毛	-14872
翻转	-14873
老牌	-14874
耳熟	-14875
肉块	-14876
胜者	-14877
腾空	-14878
自家	-14879
草丛	-14880
菜鸟	-14881
虚浮	-14882
血仇	-14883
血的	-14884
行云	-14885
衣着	-14886
补偿	-14887
衬托	-14888
西南	-14889
要走	-14890
解药	-14891
说吧	-14892
诸乾	-14893
调息	-14894
负隅	-14895
资金	-14896
跃跃	-14897
跑得	-14898
转角	-14899
这十	-14900
进门	-14901
远眺	-14902
途中	-14903
逼出	-14904
邱家	-14905
钢铁	-14906
闭嘴	-14907
闷头	-14908
雨幕	-14909
顶楼	-14910
领教	-14911
风情	-14912
飘逸	-14913
飞鸟	-14914
高气	-14915
鲜艳	-14916
麟角	-14917
黑帘	-14918
鼎盛	-14919
龙血	-14920
▁修炼	-14921
▁握着	-14922
▁欣蓝	-14923
▁看着	-14924
▁黑擎	-14925
一切都	-14926
一把将	-14927
一次的	-14928
一阵青	-14929
上来看	-14930
下一任	-14931
不是在	-14932
也是个	-14933
了一颤	-14934
了约莫	-14935
他怎么	-14936
他脚步	-14937
但此刻	-14938
你们是	-14939
你必须	-14940
倒是要	-14941
偷偷的	-14942
再度从	-14943
再度将	-14944
再度被	-14945
凝聚出	-14946
几分钟	-14947
几十年	-14948
出一抹	-14949
出乎了	-14950
出来后	-14951
则是会	-14952
加入了	-14953
动手了	-14954
十几位	-14955
压迫下	-14956
只要是	-14957
史以来	-14958
吩咐道	-14959
在众多	-14960
地模样	-14961
塌糊涂	-14962
天空的	-14963
实力也	-14964
将之递	-14965
将会在	-14966
将那道	-14967
就算他	-14968
山洞内	-14969
带来了	-14970
废话了	-14971
待得他	-14972
得颇为	-14973
心有余	-14974
心火的	-14975
忽然在	-14976
总不能	-14977
恶狠狠	-14978
慢慢的	-14979
懒得再	-14980
成灰烬	-14981
我们所	-14982
我帮你	-14983
战斗的	-14984
所携带	-14985
手指在	-14986
执意要	-14987
挥了挥	-14988
掩饰的	-14989
敏锐的	-14990
斗气在	-14991
方才道	-14992
族中的	-14993
族长的	-14994
星斗王	-14995
是打算	-14996
曾经的	-14997
椅之上	-14998
模一样	-14999
沉重的	-15000
浓浓的	-15001
漫不经	-15002
激动得	-15003
然而当	-15004
的一掌	-15005
的不断	-15006
的人气	-15007
的凌厉	-15008
的地心	-15009
的声望	-15010
的巅峰	-15011
的心境	-15012
的把握	-15013
的炼药	-15014
的真正	-15015
的结果	-15016
的肩膀	-15017
的血云	-15018
的通道	-15019
的金色	-15020
目光与	-15021
相匹敌	-15022
看得起	-15023
看来那	-15024
看热闹	-15025
破厄丹	-15026
碧绿色	-15027
第一眼	-15028
第六层	-15029
紫研与	-15030
红唇微	-15031
翻起了	-15032
而想要	-15033
而有些	-15034
胡乱的	-15035
能量团	-15036
若有深	-15037
萧族的	-15038
萧炎再	-15039
萧炎只	-15040
萧炎小	-15041
萧炎微	-15042
蔚蓝的	-15043
虽然她	-15044
行出了	-15045
被尽数	-15046
被魂殿	-15047
说这话	-15048
跗骨之	-15049
跟着我	-15050
身形如	-15051
还真当	-15052
这三位	-15053
这个人	-15054
这如何	-15055
这异火	-15056
这群人	-15057
进化成	-15058
远远比	-15059
通过了	-15060
那可不	-15061
那里是	-15062
飞而出	-15063
,...	-15064
▁凤清儿	-15065
▁笑了笑	-15066
▁这一幕	-15067
一个极为	-15068
一声轻喝	-15069
一片寂静	-15070
三大帝国	-15071
上了一层	-15072
与萧炎的	-15073
丝毫不敢	-15074
之上扫过	-15075
也并不会	-15076
也是骤然	-15077
也能算做	-15078
了萧炎的	-15079
亭亭玉立	-15080
便已经是	-15081
便是可以	-15082
便是明白	-15083
便是有些	-15084
便是转身	-15085
倾洒而进	-15086
全力一击	-15087
全力以赴	-15088
六星斗灵	-15089
凤毛麟角	-15090
凶多吉少	-15091
划过天际	-15092
加玛皇室	-15093
升腾而出	-15094
半月时间	-15095
即将进入	-15096
却是再度	-15097
却是悄然	-15098
受了不轻	-15099
古族的人	-15100
叫了一声	-15101
可以相比	-15102
各不相同	-15103
同时出手	-15104
吐了一口	-15105
吐了出来	-15106
周身空间	-15107
周遭空间	-15108
响个不停	-15109
喷涌而出	-15110
因为这种	-15111
在他看来	-15112
在接触到	-15113
大打出手	-15114
孕灵粉尘	-15115
宗派势力	-15116
山峰之顶	-15117
山洞内部	-15118
已是相当	-15119
席卷开来	-15120
年轻身影	-15121
并未出现	-15122
强者众多	-15123
当下脸色	-15124
彻底炼化	-15125
微微弯身	-15126
心头便是	-15127
心惊胆颤	-15128
心旷神怡	-15129
惊才绝艳	-15130
意犹未尽	-15131
感到意外	-15132
感应到了	-15133
我冰河谷	-15134
所产生的	-15135
所说的话	-15136
抬头对着	-15137
掠过些许	-15138
斗师级别	-15139
斗晶之中	-15140
斗气修炼	-15141
星界之中	-15142
是如何的	-15143
显然也是	-15144
最为重要	-15145
最后一名	-15146
有些诡异	-15147
有着一方	-15148
本身便是	-15149
来到此处	-15150
柳眉微蹙	-15151
此起彼伏	-15152
毒宗强者	-15153
比起先前	-15154
毫无花俏	-15155
水晶台上	-15156
没什么好	-15157
溢流而下	-15158
漆黑如墨	-15159
灵魂境界	-15160
犹如实质	-15161
猛然抬头	-15162
生灵之焱	-15163
的目光在	-15164
目光一转	-15165
目光之中	-15166
目光泛着	-15167
眼花缭乱	-15168
睁了开来	-15169
碧绿火翼	-15170
算算时间	-15171
缓步走进	-15172
而且如今	-15173
能够见到	-15174
能量炸响	-15175
萧炎赶忙	-15176
萧炎还是	-15177
萧玉等人	-15178
薰儿小姐	-15179
血潭之底	-15180
认真的道	-15181
记忆尤深	-15182
话语落下	-15183
负隅顽抗	-15184
费尽心机	-15185
赞了一声	-15186
跟我来吧	-15187
身体猛然	-15188
轰然落下	-15189
轻描淡写	-15190
轻易的将	-15191
还真的是	-15192
还能有何	-15193
这个势力	-15194
这才缓缓	-15195
这样看来	-15196
这种火焰	-15197
速度极为	-15198
那莫天行	-15199
银色卷轴	-15200
陡然凝固	-15201
除了少数	-15202
青衫男子	-15203
面前空间	-15204
面前这位	-15205
颤了一颤	-15206
魂族大军	-15207
魂族的人	-15208
黑衫少年	-15209
黑袍人的	-15210
...”“	-15211
▁天空上的	-15212
▁摇了摇头	-15213
一股异样的	-15214
不到的时间	-15215
不过却并未	-15216
丝毫不逊色	-15217
也是彻底的	-15218
交给我来吧	-15219
修长的睫毛	-15220
其身体之中	-15221
出现在了其	-15222
呼了一口气	-15223
喃喃自语道	-15224
喉咙间传出	-15225
地点了点头	-15226
少不了一番	-15227
就算是萧炎	-15228
已经达到了	-15229
想来应该是	-15230
手掌轻轻的	-15231
扫视了一圈	-15232
按照萧炎的	-15233
最后狠狠的	-15234
此时的萧炎	-15235
毫无预兆的	-15236
然后便是在	-15237
然后狠狠的	-15238
的灵魂本源	-15239
的目光投向	-15240
的空间之力	-15241
的青衣少女	-15242
眉头不由得	-15243
眼珠转了转	-15244
眼花缭乱的	-15245
空间交易会	-15246
紧皱了起来	-15247
能够让得他	-15248
脸庞之上的	-15249
脸色凝重的	-15250
自己的力量	-15251
自己的房间	-15252
自然是明白	-15253
药老沉吟道	-15254
萧炎与药老	-15255
萧炎轻笑道	-15256
萧炎随意的	-15257
落在地面上	-15258
这菩提古树	-15259
退后了两步	-15260
那略微有些	-15261
高级修炼室	-15262
鹰山老人的	-15263
▁面对着萧炎	-15264
一道削瘦身影	-15265
一道苍老身影	-15266
不过即便如此	-15267
也正因为如此	-15268
便是消失在了	-15269
却是没有丝毫	-15270
在这加玛帝国	-15271
然而还不待他	-15272
的三千焱炎火	-15273
的望着天空上	-15274
目光缓缓的在	-15275
萧炎屈指一弹	-15276
额头上的汗水	-15277
不过就是不知道	-15278
皆是从对方眼中	-15279
铺天盖地的对着	-15280
从其体内暴涌而出	-15281
悄悄的松了一口气	-15282
无数道目光注视下	-15283
,。	-15284
44	-15285
om	-15286
▁看	-15287
一冷	-15288
三宗	-15289
不一	-15290
不改	-15291
不畏	-15292
不紊	-15293
不闻	-15294
丢弃	-15295
之不	-15296
之口	-15297
乍然	-15298
乖巧	-15299
了十	-15300
了呢	-15301
五万	-15302
亚于	-15303
人不	-15304
人说	-15305
他最	-15306
仙藤	-15307
体外	-15308
何人	-15309
你对	-15310
便知	-15311
保管	-15312
俨然	-15313
免费	-15314
全盛	-15315
八扇	-15316
六人	-15317
凝现	-15318
凶手	-15319
凶残	-15320
利益	-15321
别来	-15322
前茅	-15323
前院	-15324
十人	-15325
十大	-15326
印衬	-15327
去做	-15328
受创	-15329
口子	-15330
合拢	-15331
同意	-15332
后台	-15333
后脑	-15334
吓得	-15335
听令	-15336
吵闹	-15337
吸掠	-15338
和平	-15339
喜台	-15340
喜色	-15341
噬咬	-15342
四阁	-15343
回想	-15344
因子	-15345
垂头	-15346
埋头	-15347
外力	-15348
多次	-15349
大叔	-15350
大名	-15351
大敌	-15352
大过	-15353
失手	-15354
好在	-15355
好玩	-15356
如山	-15357
学会	-15358
守着	-15359
宣告	-15360
小型	-15361
就不	-15362
尽早	-15363
山石	-15364
岛屿	-15365
干掉	-15366
幼生	-15367
底气	-15368
废人	-15369
开门	-15370
得出	-15371
微震	-15372
心痛	-15373
忌讳	-15374
态势	-15375
思绪	-15376
怯怯	-15377
总比	-15378
情愿	-15379
惊怒	-15380
惊色	-15381
想的	-15382
惹得	-15383
成立	-15384
我倒	-15385
我先	-15386
战绩	-15387
所创	-15388
手里	-15389
打伤	-15390
折腾	-15391
护士	-15392
拍死	-15393
按下	-15394
按在	-15395
搭建	-15396
撤离	-15397
擎天	-15398
收拢	-15399
断线	-15400
方便	-15401
无奇	-15402
无恙	-15403
无策	-15404
时而	-15405
暗金	-15406
更盛	-15407
更遑	-15408
替你	-15409
最多	-15410
杂毛	-15411
松缓	-15412
极深	-15413
林炎	-15414
架势	-15415
根基	-15416
欢喜	-15417
正事	-15418
正被	-15419
毁掉	-15420
气体	-15421
汉子	-15422
治疗	-15423
洪木	-15424
淤积	-15425
游走	-15426
炸开	-15427
焚毁	-15428
焰火	-15429
牵连	-15430
狠戾	-15431
独行	-15432
猎杀	-15433
玄魔	-15434
瓶子	-15435
甚远	-15436
甲胄	-15437
登上	-15438
百般	-15439
的站	-15440
的罪	-15441
皮肉	-15442
瞟向	-15443
破烂	-15444
神殿	-15445
私自	-15446
稀有	-15447
程序	-15448
窜去	-15449
竹房	-15450
精心	-15451
紫衣	-15452
线索	-15453
绕着	-15454
缺陷	-15455
罢休	-15456
罢甘	-15457
而逃	-15458
脆响	-15459
脚印	-15460
脱落	-15461
脸的	-15462
花板	-15463
若真	-15464
莲精	-15465
血矛	-15466
行上	-15467
豪华	-15468
超强	-15469
踏下	-15470
这只	-15471
这老	-15472
迷糊	-15473
遗忘	-15474
配制	-15475
铁扇	-15476
闹得	-15477
阴沟	-15478
险境	-15479
险峻	-15480
雷弧	-15481
雷芒	-15482
青光	-15483
面皮	-15484
顶端	-15485
风卷	-15486
飘渺	-15487
食物	-15488
驱赶	-15489
驻扎	-15490
高地	-15491
魂幽	-15492
黑漆	-15493
黑马	-15494
“■”	-15495
▁丹药	-15496
▁在继	-15497
▁整片	-15498
▁无形	-15499
▁笑声	-15500
▁背后	-15501
。。”	-15502
一把抓	-15503
一拳轰	-15504
一接触	-15505
一旁地	-15506
一直的	-15507
三叉戟	-15508
三番四	-15509
上多少	-15510
下一刻	-15511
不了你	-15512
不是说	-15513
不过从	-15514
不过看	-15515
与我们	-15516
两年中	-15517
严重的	-15518
丰富的	-15519
也无法	-15520
也是有	-15521
也是该	-15522
了一半	-15523
了不得	-15524
了回来	-15525
事情的	-15526
享受到	-15527
但后者	-15528
你们了	-15529
例外的	-15530
便已经	-15531
便是越	-15532
倒是挺	-15533
偏着头	-15534
其脑袋	-15535
再过得	-15536
冲上去	-15537
冲着那	-15538
凝聚着	-15539
别以为	-15540
前几日	-15541
十多米	-15542
却始终	-15543
压制下	-15544
反而更	-15545
可就是	-15546
喃喃着	-15547
嚣张了	-15548
在她的	-15549
在座的	-15550
在我们	-15551
在胸前	-15552
在薰儿	-15553
在那股	-15554
地事情	-15555
地身体	-15556
基本是	-15557
多年的	-15558
大家都	-15559
大笑声	-15560
好一些	-15561
如今一	-15562
如果他	-15563
学院中	-15564
守护者	-15565
对她的	-15566
将两人	-15567
将玉瓶	-15568
将药老	-15569
山坡上	-15570
带领下	-15571
弥漫了	-15572
悍不畏	-15573
惊叹的	-15574
惊异的	-15575
我还有	-15576
所以他	-15577
所以这	-15578
手中那	-15579
找了个	-15580
把刷子	-15581
拿不出	-15582
攻击下	-15583
攻击的	-15584
攻势下	-15585
放心的	-15586
斗气阁	-15587
方才将	-15588
旋即他	-15589
无视于	-15590
是一头	-15591
暖洋洋	-15592
暴涌间	-15593
更强的	-15594
更遑论	-15595
柳队长	-15596
棘手的	-15597
横冲直	-15598
正在与	-15599
毒蛇般	-15600
没半点	-15601
注意的	-15602
活下来	-15603
涌上了	-15604
混乱的	-15605
渗透着	-15606
漂亮的	-15607
潜力值	-15608
火灵膏	-15609
火辣辣	-15610
炎盟的	-15611
炼制成	-15612
狠辣的	-15613
狭长的	-15614
现在便	-15615
男人的	-15616
的一大	-15617
的上空	-15618
的姿态	-15619
的宗主	-15620
的帮助	-15621
的成员	-15622
的扩散	-15623
的武器	-15624
的看了	-15625
的那处	-15626
目光从	-15627
目送着	-15628
看见的	-15629
真实的	-15630
着头皮	-15631
矫健的	-15632
硬碰硬	-15633
简直就	-15634
约莫在	-15635
细密的	-15636
绕是以	-15637
老头子	-15638
老师的	-15639
而当其	-15640
自己这	-15641
萧炎手	-15642
血莲丹	-15643
要更加	-15644
让的人	-15645
让自己	-15646
说不得	-15647
象征着	-15648
还并未	-15649
还要强	-15650
这一掌	-15651
这之间	-15652
这时候	-15653
这速度	-15654
进一步	-15655
迷人的	-15656
避锋芒	-15657
那些在	-15658
那后果	-15659
那如同	-15660
那我便	-15661
难道就	-15662
面上的	-15663
面前地	-15664
音爆声	-15665
顺着其	-15666
骇人的	-15667
黄泉掌	-15668
▁一道道	-15669
▁出现在	-15670
▁半空中	-15671
▁听得她	-15672
▁在这等	-15673
▁瞧得那	-15674
▁轻轻的	-15675
▁雷尊者	-15676
一丝血迹	-15677
一切都是	-15678
三大势力	-15679
三大首领	-15680
不久之后	-15681
不仅没有	-15682
不过虽说	-15683
丝毫不惧	-15684
两道残影	-15685
之声响起	-15686
也是赶忙	-15687
交给你了	-15688
人山人海	-15689
他的确是	-15690
似乎已经	-15691
使得自己	-15692
便是凭空	-15693
便是如此	-15694
便是萧炎	-15695
便是足以	-15696
修炼的话	-15697
偶尔有着	-15698
其他一些	-15699
凝视着那	-15700
出来之后	-15701
出现之时	-15702
划破长空	-15703
化为无数	-15704
即便如今	-15705
却是显得	-15706
原本有些	-15707
双方强者	-15708
古族之中	-15709
古族之人	-15710
可怕力量	-15711
同辈之中	-15712
周围围观	-15713
咔嚓一声	-15714
四星斗尊	-15715
在其体内	-15716
在座的人	-15717
墙壁之上	-15718
声波斗技	-15719
声音有些	-15720
大陆上的	-15721
大陆之上	-15722
头也不回	-15723
头顶上的	-15724
如遭重击	-15725
妖圣精血	-15726
密林之中	-15727
寒芒闪动	-15728
对于他的	-15729
对于这位	-15730
将会成为	-15731
将目光投	-15732
居然还敢	-15733
岩浆之底	-15734
已经有了	-15735
并未有着	-15736
强榜前十	-15737
当下只得	-15738
很想知道	-15739
徐徐消散	-15740
得不偿失	-15741
得到一些	-15742
忽然出现	-15743
忽然猛的	-15744
恐怖如斯	-15745
悬浮在了	-15746
我也不会	-15747
我的意料	-15748
我还以为	-15749
或许便是	-15750
抿了抿嘴	-15751
损失惨重	-15752
摇大摆的	-15753
斗帝层次	-15754
斗灵阶别	-15755
斗皇级别	-15756
旋即心中	-15757
无以伦比	-15758
无穷无尽	-15759
暴冲天际	-15760
有些困难	-15761
有些担心	-15762
有些熟悉	-15763
有太大的	-15764
有着一片	-15765
有着极为	-15766
望着那从	-15767
极为强横	-15768
柳擎等人	-15769
根本无法	-15770
毒蛇一般	-15771
毒蛇般的	-15772
沙漠深处	-15773
浩瀚能量	-15774
海波东与	-15775
滑落而下	-15776
漆黑灰烬	-15777
火急火燎	-15778
炮弹一般	-15779
然后身形	-15780
爆发而开	-15781
犹如一头	-15782
猛的抬头	-15783
玄黄要塞	-15784
的时候了	-15785
的火灵蛇	-15786
目光急忙	-15787
看来这次	-15788
眼中都是	-15789
眼中闪过	-15790
睁开双眸	-15791
瞧着萧炎	-15792
硬着头皮	-15793
碎尸万段	-15794
竟然有着	-15795
竟然还敢	-15796
紫火斗气	-15797
紫研也是	-15798
能够成功	-15799
能量漩涡	-15800
般的模样	-15801
萧炎以及	-15802
萧炎略一	-15803
萧炎知道	-15804
萧炎视线	-15805
薰儿学妹	-15806
虽然实力	-15807
行云流水	-15808
裂开一道	-15809
身形急退	-15810
还不知道	-15811
这么容易	-15812
这位曾经	-15813
这片天空	-15814
这种资格	-15815
这种阶别	-15816
这般念头	-15817
这里的事	-15818
道道残影	-15819
遥远之处	-15820
那个小子	-15821
那些原本	-15822
那最后的	-15823
郑重的道	-15824
都是极为	-15825
银色闪电	-15826
锦袍女子	-15827
面色一沉	-15828
顺着喉咙	-15829
骂了一句	-15830
▁净莲妖火	-15831
▁房间之中	-15832
▁瞧着萧炎	-15833
一些实力稍	-15834
一种淡淡的	-15835
一道低沉的	-15836
不由得一笑	-15837
不过这一次	-15838
与斗宗强者	-15839
从怀中掏出	-15840
便是达到了	-15841
修炼状态中	-15842
再度出现时	-15843
剧烈的颤抖	-15844
化为一道道	-15845
即便是他们	-15846
却并未立刻	-15847
却是诡异的	-15848
可怕的力道	-15849
后者的实力	-15850
呢喃了一声	-15851
品阶的丹药	-15852
在中州之上	-15853
在出云帝国	-15854
坚硬的地板	-15855
如此之多的	-15856
就算是一些	-15857
干笑了一声	-15858
悬浮在半空	-15859
感觉到一股	-15860
成这般模样	-15861
或许是由于	-15862
敲打着桌面	-15863
斗气的消耗	-15864
方才有资格	-15865
显得极为的	-15866
最后一句话	-15867
极其庞大的	-15868
果然不愧是	-15869
消耗的斗气	-15870
焚烧成虚无	-15871
爆发出来的	-15872
现在的他们	-15873
的望着那在	-15874
的那些强者	-15875
目光在周围	-15876
目光望着那	-15877
看上去极为	-15878
突然间变得	-15879
细微的波动	-15880
脸色苍白的	-15881
自然是没有	-15882
自然是需要	-15883
苍老的脸庞	-15884
萧炎也只能	-15885
萧炎也并未	-15886
萧炎淡笑道	-15887
萧炎的脸庞	-15888
蠕动了起来	-15889
陷入了沉默	-15890
高阶炼药师	-15891
▁听得萧炎的	-15892
▁在萧炎心中	-15893
▁如今的萧炎	-15894
▁突然出现的	-15895
▁第一千两百	-15896
▁萧炎淡淡的	-15897
▁见到小医仙	-15898
一缕碧绿火焰	-15899
不远处的萧炎	-15900
从其嘴中传出	-15901
其上所蕴含的	-15902
半个小时左右	-15903
咬牙切齿的道	-15904
所需要的能量	-15905
手指上的纳戒	-15906
摧枯拉朽般的	-15907
数千丈庞大的	-15908
整个加玛帝国	-15909
斗皇巅峰强者	-15910
无数道目光的	-15911
毁灭般的力量	-15912
然后对着萧炎	-15913
粉红色的火焰	-15914
美杜莎女王的	-15915
若是能够得到	-15916
药老微微一笑	-15917
萧炎目光转向	-15918
轻吸了一口气	-15919
▁笑着点了点头	-15920
九幽地冥蟒族的	-15921
也是有着不小的	-15922
却是没有丝毫的	-15923
天妖凰族的强者	-15924
无奈地摇了摇头	-15925
望向萧炎的目光	-15926
足足持续了将近	-15927
达到了一个相当	-15928
▁“......”	-15929
一侧	-15930
一喜	-15931
一字	-15932
一线	-15933
一蹬	-15934
万剑	-15935
万的	-15936
万蛇	-15937
三品	-15938
三日	-15939
上加	-15940
不为	-15941
不懂	-15942
不服	-15943
个月	-15944
主宰	-15945
主持	-15946
之技	-15947
之缘	-15948
之路	-15949
九条	-15950
了弹	-15951
了结	-15952
事物	-15953
交予	-15954
交流	-15955
人来	-15956
人能	-15957
他又	-15958
会将	-15959
但与	-15960
例如	-15961
便被	-15962
公布	-15963
内伤	-15964
内域	-15965
冰晶	-15966
冰皇	-15967
几枚	-15968
几欲	-15969
出不	-15970
出事	-15971
出类	-15972
分解	-15973
到渠	-15974
剑身	-15975
剩余	-15976
动间	-15977
助威	-15978
十数	-15979
千老	-15980
历史	-15981
历经	-15982
厚重	-15983
又得	-15984
发的	-15985
取胜	-15986
变冷	-15987
口水	-15988
古甲	-15989
只管	-15990
可其	-15991
右拳	-15992
向你	-15993
吞了	-15994
周知	-15995
哀嚎	-15996
哪位	-15997
商讨	-15998
国家	-15999
在未	-16000
地盘	-16001
地脉	-16002
地覆	-16003
士气	-16004
失措	-16005
奔驰	-16006
奶奶	-16007
如也	-16008
妖果	-16009
学习	-16010
它所	-16011
寒毛	-16012
寸进	-16013
对敌	-16014
对话	-16015
寻出	-16016
少有	-16017
尸骨	-16018
层层	-16019
山坳	-16020
巧合	-16021
平地	-16022
应是	-16023
庸人	-16024
异变	-16025
张大	-16026
心存	-16027
心性	-16028
心破	-16029
忍将	-16030
怒极	-16031
总算	-16032
想去	-16033
想将	-16034
想尽	-16035
感官	-16036
成名	-16037
我带	-16038
截杀	-16039
所致	-16040
所获	-16041
所造	-16042
打误	-16043
把它	-16044
抛开	-16045
披散	-16046
抵消	-16047
抽回	-16048
拔萃	-16049
拖着	-16050
拯救	-16051
振翅	-16052
掌声	-16053
撞见	-16054
收购	-16055
救命	-16056
数值	-16057
无知	-16058
是将	-16059
是有	-16060
暴跳	-16061
有效	-16062
服饰	-16063
木门	-16064
来犯	-16065
根据	-16066
正统	-16067
气味	-16068
波浪	-16069
注目	-16070
淡薄	-16071
深潭	-16072
混杂	-16073
清凉	-16074
清水	-16075
游离	-16076
溅射	-16077
火壶	-16078
灼灼	-16079
然一	-16080
熄灭	-16081
爆体	-16082
爆响	-16083
特地	-16084
狗屁	-16085
玉母	-16086
由得	-16087
电脑	-16088
男性	-16089
的要	-16090
直觉	-16091
相争	-16092
相融	-16093
真地	-16094
知情	-16095
硕大	-16096
硬抗	-16097
离地	-16098
离弦	-16099
离手	-16100
称霸	-16101
窈窕	-16102
窜动	-16103
篝火	-16104
结镜	-16105
统一	-16106
缓渡	-16107
缩回	-16108
罡风	-16109
翻船	-16110
老天	-16111
而断	-16112
耐心	-16113
肉搏	-16114
肉身	-16115
胃口	-16116
胖子	-16117
花瓶	-16118
药铺	-16119
莫大	-16120
获取	-16121
菩丹	-16122
营帐	-16123
虚化	-16124
装进	-16125
诣天	-16126
说他	-16127
谈论	-16128
贵重	-16129
赋予	-16130
踏在	-16131
车厢	-16132
软的	-16133
轰动	-16134
轻皱	-16135
迎上	-16136
近千	-16137
进那	-16138
连她	-16139
追兵	-16140
逗留	-16141
都还	-16142
重复	-16143
金芒	-16144
钻出	-16145
铁剑	-16146
铁塔	-16147
银月	-16148
闪闪	-16149
闯入	-16150
阶梯	-16151
隔离	-16152
非同	-16153
顺畅	-16154
颜面	-16155
风头	-16156
风的	-16157
飞转	-16158
飞魄	-16159
驯服	-16160
高挑	-16161
鸡犬	-16162
鹰啼	-16163
麾下	-16164
鼎内	-16165
!”“	-16166
”。”	-16167
▁周围	-16168
▁茫茫	-16169
▁萧鼎	-16170
▁这片	-16171
▁这股	-16172
▁金色	-16173
▁黑影	-16174
一出手	-16175
一股柔	-16176
一阵白	-16177
万剑阁	-16178
下去吧	-16179
不住了	-16180
不及防	-16181
不用了	-16182
不胜数	-16183
不足以	-16184
不过才	-16185
不顺眼	-16186
与你们	-16187
与其他	-16188
也不免	-16189
也不理	-16190
了两年	-16191
从身后	-16192
他先前	-16193
他还真	-16194
他这般	-16195
他需要	-16196
会引来	-16197
但这些	-16198
你如今	-16199
便是由	-16200
俏脸微	-16201
兴师动	-16202
冰冷彻	-16203
凝血散	-16204
出其不	-16205
到什么	-16206
到渠成	-16207
动静的	-16208
化成了	-16209
北阁主	-16210
南龙王	-16211
压制着	-16212
双方的	-16213
古龙岛	-16214
叶家的	-16215
同龄人	-16216
后方的	-16217
吸力的	-16218
吸引人	-16219
吸收着	-16220
咬了咬	-16221
善罢甘	-16222
嗜血鼠	-16223
嘶哑的	-16224
因为在	-16225
在一阵	-16226
在上面	-16227
在修炼	-16228
在前者	-16229
在必得	-16230
在瞧得	-16231
在耳边	-16232
在那道	-16233
在阳光	-16234
地佣兵	-16235
地地方	-16236
地板上	-16237
地黄精	-16238
墨家的	-16239
多一些	-16240
大拇指	-16241
失败而	-16242
妖凰钟	-16243
娇小的	-16244
对方那	-16245
对萧家	-16246
射而去	-16247
将其中	-16248
将卷轴	-16249
将周围	-16250
将异火	-16251
将心神	-16252
将空间	-16253
就在这	-16254
山壁上	-16255
山林中	-16256
引以为	-16257
弥漫间	-16258
当年你	-16259
心破障	-16260
怕是得	-16261
恐惧的	-16262
悠闲的	-16263
愕然道	-16264
我以前	-16265
我似乎	-16266
所以我	-16267
所释放	-16268
扑来的	-16269
打误撞	-16270
把他们	-16271
抽搐着	-16272
提升了	-16273
撞击在	-16274
操控着	-16275
放下了	-16276
数十年	-16277
旋即一	-16278
有关系	-16279
朝前一	-16280
来回的	-16281
死亡的	-16282
残余的	-16283
残酷的	-16284
毁灭性	-16285
每个人	-16286
没关系	-16287
深山中	-16288
火莲子	-16289
爆发了	-16290
牵制住	-16291
现在就	-16292
的一方	-16293
的一根	-16294
的一缕	-16295
的云山	-16296
的几率	-16297
的吴昊	-16298
的小觑	-16299
的小辈	-16300
的强大	-16301
的战场	-16302
的最大	-16303
的淬炼	-16304
的火浪	-16305
的灰色	-16306
的老头	-16307
的萧宁	-16308
的融合	-16309
的雅妃	-16310
的风筝	-16311
皆是在	-16312
看不清	-16313
着身体	-16314
瞧的那	-16315
确切的	-16316
离开的	-16317
站在了	-16318
竟然在	-16319
第七段	-16320
等日后	-16321
算起来	-16322
精致的	-16323
经过这	-16324
翻地覆	-16325
而作为	-16326
而如此	-16327
聚火壶	-16328
背上的	-16329
能量壁	-16330
自天际	-16331
自己那	-16332
至强者	-16333
色液体	-16334
若是能	-16335
若是这	-16336
药老在	-16337
药老所	-16338
萧战的	-16339
萧炎又	-16340
虽然在	-16341
被异火	-16342
让得那	-16343
足以跟	-16344
踉跄的	-16345
轻放在	-16346
轻松的	-16347
还有那	-16348
还没死	-16349
这一场	-16350
这中州	-16351
这么一	-16352
这位是	-16353
这天墓	-16354
这魂殿	-16355
进去了	-16356
进去吧	-16357
迟疑道	-16358
那一头	-16359
那两个	-16360
那妖瞑	-16361
那巨大	-16362
那庞大	-16363
那洪辰	-16364
闪掠上	-16365
隐藏得	-16366
青灵藤	-16367
面不改	-16368
面情绪	-16369
顿在那	-16370
领头者	-16371
飞魄散	-16372
黑漆漆	-16373
黑骷墓	-16374
▁在这些	-16375
▁第一百	-16376
一丝丝的	-16377
一声暗叹	-16378
一己之力	-16379
一模一样	-16380
一道声音	-16381
一道黑色	-16382
三年之后	-16383
上扫了扫	-16384
不过此刻	-16385
与风雷阁	-16386
为了一个	-16387
乌云之中	-16388
九品宝丹	-16389
也是一阵	-16390
也是只能	-16391
也是响起	-16392
也是已经	-16393
也是需要	-16394
从中传出	-16395
他们倒是	-16396
他并没有	-16397
令人感到	-16398
众所周知	-16399
便是将其	-16400
便是知道	-16401
倒并没有	-16402
倾尽全力	-16403
光头蛇人	-16404
再度暴涨	-16405
再度浮现	-16406
出了一道	-16407
出类拔萃	-16408
刚刚浮现	-16409
刚欲转身	-16410
加入联盟	-16411
十几分钟	-16412
即便萧炎	-16413
名列前茅	-16414
后者脑袋	-16415
吓了一跳	-16416
含笑点头	-16417
呼啸而出	-16418
因此只能	-16419
在他手中	-16420
地位不低	-16421
奥托大师	-16422
如果真是	-16423
宛如一个	-16424
对于一些	-16425
寻了一处	-16426
尽数消散	-16427
山洞之内	-16428
已经逐渐	-16429
平原之上	-16430
并未发现	-16431
当机立断	-16432
微偏过头	-16433
心中忽然	-16434
必然也会	-16435
必须需要	-16436
恐怖劲风	-16437
惊诧的道	-16438
惊雷一般	-16439
按照这种	-16440
掠过天际	-16441
措不及防	-16442
数不胜数	-16443
斗气之翼	-16444
晋入半圣	-16445
暂避锋芒	-16446
有些不安	-16447
有些不甘	-16448
有些尴尬	-16449
有所变化	-16450
有条不紊	-16451
望着下方	-16452
未免也太	-16453
杀意涌动	-16454
此刻已经	-16455
毁天灭地	-16456
水到渠成	-16457
法犸会长	-16458
浑圆丹药	-16459
消失了去	-16460
淡了许多	-16461
清脆声音	-16462
火焰盔甲	-16463
然后尽数	-16464
爆发出了	-16465
犹若未闻	-16466
狠狠对着	-16467
狠狠的一	-16468
狰狞之色	-16469
猛的一挥	-16470
猛的一阵	-16471
现在看来	-16472
略微有点	-16473
的大斗师	-16474
的目光下	-16475
的缘故吧	-16476
的能量核	-16477
看了一下	-16478
眨了眨眼	-16479
空空如也	-16480
突然传出	-16481
竟然直接	-16482
紫研却是	-16483
红裙女子	-16484
给予萧炎	-16485
美杜莎的	-16486
老夫倒是	-16487
而且就算	-16488
能量潮汐	-16489
能量雾气	-16490
脸色涨红	-16491
若是一旦	-16492
若是换作	-16493
萧炎不再	-16494
萧炎双眼	-16495
萧炎迅速	-16496
萧炎那张	-16497
落下地面	-16498
蓝色身影	-16499
薰儿三人	-16500
薰儿脸颊	-16501
虽然也是	-16502
虽说萧炎	-16503
被小医仙	-16504
试试能否	-16505
说了出来	-16506
说到这里	-16507
跗骨之蛆	-16508
身体顿时	-16509
身形刚动	-16510
迅速掠去	-16511
迎了上去	-16512
这个东西	-16513
这该死的	-16514
这魔毒斑	-16515
连绵不绝	-16516
那位叫做	-16517
都是会被	-16518
都是必须	-16519
重尺之上	-16520
金色巨人	-16521
银色身影	-16522
阴沉的道	-16523
阻拦而下	-16524
隔着老远	-16525
青华老怪	-16526
面上却是	-16527
魂族之中	-16528
魂殿尊者	-16529
魂飞魄散	-16530
黑山要塞	-16531
黑白天尊	-16532
黑色骷髅	-16533
黑角域的	-16534
龙凰晶层	-16535
龙皇陛下	-16536
▁大厅之中	-16537
▁这一次的	-16538
不断的传出	-16539
丹塔大长老	-16540
之中所蕴含	-16541
之间的恩怨	-16542
九彩吞天蟒	-16543
他便是能够	-16544
以他现在的	-16545
充斥着一种	-16546
八段斗之气	-16547
其身体之内	-16548
凄厉的惨叫	-16549
凶猛的劲气	-16550
到时候若是	-16551
到这种地步	-16552
危险的感觉	-16553
四翼天魔蝎	-16554
在地面之上	-16555
在萧炎周身	-16556
在这里修炼	-16557
场中的萧炎	-16558
天空上的那	-16559
如闪电般的	-16560
实在是太大	-16561
巨大的能量	-16562
平静了下来	-16563
当下一道道	-16564
当下不由得	-16565
急速放大的	-16566
惊咦了一声	-16567
持续了半晌	-16568
最后停在了	-16569
最后出现在	-16570
沉默了一下	-16571
沉默了片刻	-16572
没什么问题	-16573
清秀的脸庞	-16574
澎湃的斗气	-16575
火焰的温度	-16576
然后重重的	-16577
爆发出阵阵	-16578
的大厅之中	-16579
的年轻脸庞	-16580
的灵魂印记	-16581
的陨落心炎	-16582
看来这一次	-16583
睁开了双眸	-16584
神秘黑袍人	-16585
纹丝不动的	-16586
翻腾了起来	-16587
而来的强者	-16588
能够感应到	-16589
萧炎几乎是	-16590
虚幻的身体	-16591
虽然比不上	-16592
让得所有人	-16593
身体表面的	-16594
轻柔的声音	-16595
还有着不少	-16596
这净莲妖火	-16597
这应该便是	-16598
连空间都是	-16599
那鹰山老人	-16600
重重的轰击	-16601
面面相觑着	-16602
♀♀♀♀♀♀	-16603
两名斗皇强者	-16604
也是越来越多	-16605
仅仅片刻时间	-16606
从中散发而出	-16607
以他们的实力	-16608
便是有所察觉	-16609
出现在其手中	-16610
吞天蟒的灵魂	-16611
天妖凰族的人	-16612
心中略微有些	-16613
所取得的效果	-16614
斗气大陆之上	-16615
旋即一道身影	-16616
果然名不虚传	-16617
没有丝毫迟疑	-16618
炼制六品丹药	-16619
然后身形一动	-16620
狼头佣兵团的	-16621
猛然暴射而出	-16622
略微有些变化	-16623
白了萧炎一眼	-16624
的炼药师大会	-16625
目光瞥了一眼	-16626
缓缓站起身来	-16627
萧炎也就不再	-16628
萧炎心神一动	-16629
那自然是最好	-16630
都是略微有些	-16631
闪电般的结出	-16632
顿时暴涌而出	-16633
一名六品炼药师	-16634
不由得微微一笑	-16635
也不是省油的灯	-16636
即便是以萧炎的	-16637
在众目睽睽之下	-16638
尖锐的破风声响	-16639
斗尊巅峰的强者	-16640
斗皇巅峰的强者	-16641
死死的盯着萧炎	-16642
浩瀚的灵魂力量	-16643
脸庞上闪过一抹	-16644
萧炎沉吟了一会	-16645
便是直接出现在了	-16646
对着萧炎暴掠而去	-16647
居高临下的俯视着	-16648
施展了天火三玄变	-16649
萧炎也是微微一笑	-16650
▁心中闪过这道念头	-16651
脸颊上也是浮现一抹	-16652
,<	-16653
??	-16654
_”	-16655
▁其	-16656
▁十	-16657
一命	-16658
一幅	-16659
一现	-16660
一统	-16661
一言	-16662
万火	-16663
三根	-16664
上天	-16665
不吃	-16666
不息	-16667
不慢	-16668
不透	-16669
两字	-16670
两边	-16671
为己	-16672
为的	-16673
之行	-16674
也别	-16675
乱想	-16676
了跺	-16677
争吵	-16678
二阶	-16679
五阶	-16680
交击	-16681
亲身	-16682
亲近	-16683
他吧	-16684
以求	-16685
伯父	-16686
但以	-16687
住的	-16688
佩恩	-16689
侮辱	-16690
侵泡	-16691
便不	-16692
儿戏	-16693
元老	-16694
先辈	-16695
光靠	-16696
入耳	-16697
八道	-16698
内敛	-16699
冰刃	-16700
凌老	-16701
凌驾	-16702
几层	-16703
分成	-16704
初来	-16705
前人	-16706
力度	-16707
力挽	-16708
加价	-16709
劲敌	-16710
化骨	-16711
十之	-16712
十寒	-16713
十招	-16714
印入	-16715
却还	-16716
去那	-16717
变回	-16718
叶院	-16719
名单	-16720
向他	-16721
吝啬	-16722
启程	-16723
哼声	-16724
回家	-16725
回神	-16726
因素	-16727
坚定	-16728
堂堂	-16729
声名	-16730
处置	-16731
外貌	-16732
大难	-16733
天气	-16734
天罗	-16735
头晕	-16736
夺走	-16737
奥妙	-16738
女婿	-16739
她在	-16740
好友	-16741
寄托	-16742
寻见	-16743
小瞧	-16744
就来	-16745
山崖	-16746
山巅	-16747
巨鹤	-16748
干了	-16749
平白	-16750
库房	-16751
应手	-16752
废弃	-16753
开头	-16754
引导	-16755
当当	-16756
微凝	-16757
忘却	-16758
快感	-16759
急了	-16760
恬噪	-16761
悻悻	-16762
惹来	-16763
愿望	-16764
我地	-16765
我靠	-16766
战的	-16767
所要	-16768
手链	-16769
打动	-16770
扭转	-16771
把戏	-16772
报废	-16773
抽取	-16774
招式	-16775
拦腰	-16776
拦路	-16777
拿去	-16778
掠向	-16779
探查	-16780
搜集	-16781
效力	-16782
敌对	-16783
敢与	-16784
敢说	-16785
敲门	-16786
旁的	-16787
族规	-16788
无几	-16789
星星	-16790
是吧	-16791
暴闪	-16792
有股	-16793
有趣	-16794
本能	-16795
杀得	-16796
杂碎	-16797
束着	-16798
枝叶	-16799
枪身	-16800
架子	-16801
检验	-16802
横跨	-16803
欣长	-16804
正色	-16805
死人	-16806
毒体	-16807
沮丧	-16808
治愈	-16809
泛寒	-16810
活该	-16811
派遣	-16812
淡绿	-16813
清气	-16814
温润	-16815
温玉	-16816
火气	-16817
火烧	-16818
火稚	-16819
炸得	-16820
点击	-16821
烈火	-16822
热切	-16823
熟人	-16824
狂澜	-16825
狠话	-16826
玉葱	-16827
甘愿	-16828
甩开	-16829
的亲	-16830
的几	-16831
的软	-16832
相似	-16833
相接	-16834
眼线	-16835
立脚	-16836
竭尽	-16837
等会	-16838
算作	-16839
粗重	-16840
精钢	-16841
糨糊	-16842
紧要	-16843
紫发	-16844
绝美	-16845
老鼠	-16846
而现	-16847
肉跳	-16848
胆大	-16849
能把	-16850
脱俗	-16851
自言	-16852
节省	-16853
萧克	-16854
落得	-16855
蛇头	-16856
蛇般	-16857
血刃	-16858
血卫	-16859
血拼	-16860
血管	-16861
表明	-16862
被抓	-16863
要去	-16864
观其	-16865
视觉	-16866
让其	-16867
话头	-16868
费用	-16869
起见	-16870
路可	-16871
踏上	-16872
较为	-16873
辩解	-16874
迁移	-16875
这间	-16876
远的	-16877
迷失	-16878
迷离	-16879
迷阵	-16880
逃走	-16881
造诣	-16882
都快	-16883
重大	-16884
重生	-16885
量力	-16886
铁锤	-16887
镜面	-16888
长啸	-16889
阵营	-16890
陪你	-16891
随风	-16892
雁翎	-16893
集合	-16894
青厌	-16895
青牛	-16896
青芒	-16897
颇具	-16898
颤粟	-16899
风雨	-16900
香风	-16901
黄城	-16902
黑域	-16903
黑斑	-16904
鼓的	-16905
鼠潮	-16906
▁柳擎	-16907
▁漫天	-16908
▁萧晨	-16909
▁顺着	-16910
一个是	-16911
一大群	-16912
上一线	-16913
下身来	-16914
不停蹄	-16915
不出手	-16916
与先前	-16917
与那些	-16918
与那位	-16919
与青鳞	-16920
中央处	-16921
也不算	-16922
也必须	-16923
了一头	-16924
了一张	-16925
了几次	-16926
交易区	-16927
他几乎	-16928
他就是	-16929
他总是	-16930
他这才	-16931
令得它	-16932
仿佛连	-16933
会因为	-16934
会突然	-16935
使用的	-16936
光是这	-16937
八扇门	-16938
其对手	-16939
兽灵罩	-16940
冰尊者	-16941
出这般	-16942
击杀了	-16943
则是一	-16944
则是在	-16945
别无他	-16946
到这里	-16947
十五章	-16948
升腾的	-16949
取决于	-16950
受伤的	-16951
可还真	-16952
同一个	-16953
同时的	-16954
喃喃声	-16955
嘲讽的	-16956
在周身	-16957
在日光	-16958
地笑道	-16959
天空中	-16960
好半晌	-16961
如何了	-16962
存在了	-16963
实力大	-16964
实在太	-16965
将他的	-16966
将速度	-16967
将附近	-16968
少不了	-16969
尽数的	-16970
已是被	-16971
带起的	-16972
幽静的	-16973
得如同	-16974
得恐怖	-16975
性感的	-16976
怪异的	-16977
恍然的	-16978
惊恐的	-16979
我体内	-16980
我曾经	-16981
我药族	-16982
所拥有	-16983
扇动着	-16984
抵御住	-16985
抵达了	-16986
担心的	-16987
拖延了	-16988
掠来的	-16989
接触间	-16990
撕裂开	-16991
放过你	-16992
无不是	-16993
既然是	-16994
是没有	-16995
是真的	-16996
曾具备	-16997
最后停	-16998
柔和的	-16999
比我们	-17000
沉如水	-17001
没资格	-17002
沾染上	-17003
涌动的	-17004
涌动着	-17005
清澈的	-17006
渗透出	-17007
漂浮在	-17008
漆黑色	-17009
灵动的	-17010
炼制了	-17011
炼制这	-17012
然而在	-17013
照射下	-17014
爆发时	-17015
爆裂成	-17016
玉瓶中	-17017
玉葱指	-17018
现在这	-17019
球一般	-17020
用斗气	-17021
略带着	-17022
疲倦的	-17023
的一干	-17024
的一股	-17025
的云棱	-17026
的人吧	-17027
的价值	-17028
的体积	-17029
的冰层	-17030
的凶兽	-17031
的大地	-17032
的大阵	-17033
的家族	-17034
的手指	-17035
的提炼	-17036
的操控	-17037
的消耗	-17038
的液体	-17039
的牙齿	-17040
的特殊	-17041
的经验	-17042
的追杀	-17043
着脸庞	-17044
瞬间的	-17045
瞳孔中	-17046
种药材	-17047
秦统领	-17048
穿透了	-17049
站立着	-17050
笑盈盈	-17051
第一变	-17052
笼罩了	-17053
答应了	-17054
精纯的	-17055
结束后	-17056
给我们	-17057
翼一振	-17058
老骨头	-17059
而一旦	-17060
而且他	-17061
而且看	-17062
而来地	-17063
而这般	-17064
背靠着	-17065
胡长老	-17066
脚尖在	-17067
脚步一	-17068
茂密的	-17069
萧炎还	-17070
萧薰儿	-17071
视线在	-17072
跃跃欲	-17073
跺了跺	-17074
迅猛的	-17075
这件事	-17076
这其中	-17077
这几年	-17078
这才是	-17079
这样吧	-17080
逃不掉	-17081
那些从	-17082
那些被	-17083
那威力	-17084
那宛如	-17085
错错落	-17086
长老席	-17087
闪掠间	-17088
阵阵的	-17089
除非是	-17090
顿时在	-17091
风暴涨	-17092
魂手印	-17093
龙血芝	-17094
▁听着这	-17095
▁大厅中	-17096
一声叹息	-17097
一道宛如	-17098
七天时间	-17099
不知死活	-17100
不过为了	-17101
不过他的	-17102
不过我们	-17103
不过既然	-17104
与林修崖	-17105
两人便是	-17106
两位老者	-17107
两年不见	-17108
两日之后	-17109
两月时间	-17110
严严实实	-17111
丹药雏形	-17112
九星斗皇	-17113
也是将会	-17114
也是满脸	-17115
云韵也是	-17116
什么意思	-17117
仅仅不到	-17118
从来没有	-17119
从此以后	-17120
他们手中	-17121
令得周围	-17122
以及强者	-17123
任何一点	-17124
众多长老	-17125
你的老师	-17126
便是响起	-17127
便是急速	-17128
便是突然	-17129
便是让得	-17130
修炼起来	-17131
倒是未曾	-17132
先前那位	-17133
先祖萧玄	-17134
兴师动众	-17135
冰河谷的	-17136
几乎有种	-17137
击中的话	-17138
划起一道	-17139
力挽狂澜	-17140
动弹不得	-17141
劲气涟漪	-17142
化为一条	-17143
十大强者	-17144
却是不敢	-17145
又是有着	-17146
双翼振动	-17147
变得越加	-17148
变成了一	-17149
另外一只	-17150
可他却是	-17151
可没想到	-17152
叶重长老	-17153
叹息一声	-17154
告诉他们	-17155
善罢甘休	-17156
在这短短	-17157
地炼药师	-17158
地阶低级	-17159
坚持下去	-17160
基本上是	-17161
多久时间	-17162
大厅内的	-17163
天地异象	-17164
天墓深处	-17165
天翻地覆	-17166
奥巴帕顿	-17167
如此之大	-17168
如玉般的	-17169
宝石般的	-17170
实力也是	-17171
实在不行	-17172
家族中的	-17173
就算是我	-17174
尽数驱逐	-17175
居然直接	-17176
山脉之外	-17177
岩浆生物	-17178
差不多了	-17179
已经没有	-17180
席卷而来	-17181
并不困难	-17182
广场之中	-17183
开口说话	-17184
异火之中	-17185
强榜大赛	-17186
强横程度	-17187
微微紧握	-17188
心头有些	-17189
心惊肉跳	-17190
心有余悸	-17191
心理准备	-17192
忍受不了	-17193
忽然有着	-17194
急速涌动	-17195
总的说来	-17196
意外的话	-17197
手忙脚乱	-17198
手掌猛然	-17199
手臂上的	-17200
扬了扬手	-17201
拇指大小	-17202
拍卖台上	-17203
整片山脉	-17204
斗气化翼	-17205
施展出来	-17206
旋即急忙	-17207
时间到了	-17208
时间紧迫	-17209
明显不是	-17210
显得颇为	-17211
暴射而下	-17212
暴掠而下	-17213
暴跳如雷	-17214
最为清楚	-17215
最后一层	-17216
最后在其	-17217
最后悬浮	-17218
最后直接	-17219
有些惋惜	-17220
有些无语	-17221
有所耳闻	-17222
有着将近	-17223
望着对面	-17224
束手无策	-17225
松一口气	-17226
柔和笑容	-17227
树干之上	-17228
森白色的	-17229
此时的他	-17230
此话一出	-17231
毋庸置疑	-17232
没多大的	-17233
洒落而下	-17234
活物一般	-17235
淡淡地道	-17236
淡淡笑容	-17237
漆黑双眸	-17238
火鼎之内	-17239
炸裂而开	-17240
炼制出了	-17241
炼药术上	-17242
炽热气息	-17243
猛的一动	-17244
玄阶低级	-17245
略感诧异	-17246
痛苦之色	-17247
白色粉末	-17248
的拍了拍	-17249
的时间内	-17250
皮肤之上	-17251
目光再次	-17252
相对而言	-17253
相比起来	-17254
相隔甚远	-17255
看来只能	-17256
眼睛微眯	-17257
眼睛顿时	-17258
瞬间凝固	-17259
究竟能否	-17260
突然一动	-17261
竞技场中	-17262
粉红色的	-17263
精神一振	-17264
紫心破障	-17265
细细看去	-17266
给予他的	-17267
联手的话	-17268
胸口之上	-17269
能够看出	-17270
能够知道	-17271
脱落而下	-17272
致命般的	-17273
芝火灵膏	-17274
萧炎他们	-17275
萧炎几乎	-17276
萧炎喉咙	-17277
蓝色火焰	-17278
虽然有着	-17279
虽然没有	-17280
蠕动起来	-17281
血色能量	-17282
要塞之上	-17283
误打误撞	-17284
谁胜谁负	-17285
走过来的	-17286
超级势力	-17287
身形一转	-17288
身形刚刚	-17289
身着一套	-17290
转移而开	-17291
过多停留	-17292
还是因为	-17293
还能看见	-17294
这些火焰	-17295
这般近乎	-17296
逐渐减弱	-17297
邋遢老者	-17298
那股气息	-17299
那道人影	-17300
都是不能	-17301
都是处于	-17302
都是被其	-17303
金铁之声	-17304
降落而下	-17305
难以察觉	-17306
雄浑能量	-17307
青火晶卡	-17308
青色液体	-17309
青衣少女	-17310
马不停蹄	-17311
高阶魔兽	-17312
黄阶高级	-17313
黑色戒指	-17314
龙凰古甲	-17315
▁做完这些	-17316
▁对于他的	-17317
▁广场之上	-17318
▁慕骨老人	-17319
▁点了点头	-17320
▁而在萧炎	-17321
万年青灵藤	-17322
不少人皆是	-17323
中级修炼室	-17324
之中的人影	-17325
之间的关系	-17326
也是略有些	-17327
以你的实力	-17328
便是彻底的	-17329
便是能够将	-17330
便是被萧炎	-17331
停止了下来	-17332
其上所蕴含	-17333
十几分钟后	-17334
变成了一个	-17335
古元与烛坤	-17336
可不是寻常	-17337
可是相当的	-17338
吸引了过去	-17339
回过神来时	-17340
将目光投注	-17341
就犹如一个	-17342
并没有太过	-17343
很多炼药师	-17344
微蹙着柳眉	-17345
怔怔的望着	-17346
我们的斗破	-17347
散发出来的	-17348
散发着淡淡	-17349
斗圣强者的	-17350
斗尊阶别的	-17351
断线的风筝	-17352
方才有可能	-17353
无一例外的	-17354
暴冲而来的	-17355
暴动了起来	-17356
有些无奈的	-17357
没有任何的	-17358
消失的身影	-17359
深不见底的	-17360
火焰的操控	-17361
犹如蜘蛛网	-17362
狠狠的轰击	-17363
的恐怖实力	-17364
的挥了挥手	-17365
的望着那道	-17366
的望着面前	-17367
的那些药材	-17368
看上去有些	-17369
瞟了一眼那	-17370
突破至斗皇	-17371
细小的裂缝	-17372
经过先前的	-17373
药老沉声道	-17374
萧炎的灵魂	-17375
轻声笑了笑	-17376
这么多年了	-17377
这些老家伙	-17378
这摘星老鬼	-17379
这陨落心炎	-17380
远远比不上	-17381
造成太大的	-17382
那陨落心炎	-17383
错愕的发现	-17384
阴沉的脸色	-17385
陆陆续续的	-17386
震惊目光中	-17387
▁此时的萧炎	-17388
七品高级丹药	-17389
从中弥漫而出	-17390
便是暴涌而出	-17391
便是浮现而出	-17392
便是闪掠而出	-17393
到了这种时候	-17394
却是微微一笑	-17395
发生什么事了	-17396
周围那一道道	-17397
嘴角掀起一抹	-17398
在心中喃喃道	-17399
安静的等待着	-17400
小医仙轻声道	-17401
微微皱了皱眉	-17402
忍不住的一笑	-17403
抹去嘴角血迹	-17404
林修崖与柳擎	-17405
笑着摆了摆手	-17406
紫黑色的火焰	-17407
终于是在此刻	-17408
终于是忍不住	-17409
结出修炼印结	-17410
药老点了点头	-17411
萧炎捎了捎头	-17412
萧炎略微有些	-17413
萧炎站起身来	-17414
这菩提化体涎	-17415
都是有些感到	-17416
面色也是有些	-17417
倒吸了一口凉气	-17418
出现在萧炎身旁	-17419
斗宗阶别的强者	-17420
的望着天空上的	-17421
以萧炎如今的实力	-17422
出色的灵魂感知力	-17423
小医仙与天火尊者	-17424
深深的吐了一口气	-17425
眉头也是微微一皱	-17426
(6	-17427
▁不	-17428
▁此	-17429
▁炎	-17430
一体	-17431
一同	-17432
一连	-17433
一颢	-17434
万兽	-17435
不宜	-17436
不惜	-17437
不给	-17438
不计	-17439
不释	-17440
中最	-17441
为数	-17442
举步	-17443
之威	-17444
之灵	-17445
之痛	-17446
之苦	-17447
之霎	-17448
也很	-17449
也行	-17450
争辩	-17451
事故	-17452
五头	-17453
五年	-17454
人性	-17455
他就	-17456
伙伴	-17457
传送	-17458
低于	-17459
住手	-17460
佑佑	-17461
体垩	-17462
作出	-17463
佝偻	-17464
你却	-17465
侧脸	-17466
保住	-17467
保密	-17468
修补	-17469
倚仗	-17470
做好	-17471
其身	-17472
几番	-17473
出尘	-17474
击打	-17475
刀剑	-17476
分会	-17477
分寸	-17478
刻薄	-17479
剧颤	-17480
化丹	-17481
化龙	-17482
发布	-17483
口哨	-17484
可要	-17485
台下	-17486
叽叽	-17487
各个	-17488
各色	-17489
合之	-17490
合格	-17491
吐着	-17492
含金	-17493
听闻	-17494
吹火	-17495
呜啸	-17496
周边	-17497
和那	-17498
嗓子	-17499
噬石	-17500
场所	-17501
埋伏	-17502
城外	-17503
声的	-17504
多让	-17505
大亏	-17506
大作	-17507
大力	-17508
大恩	-17509
大鹏	-17510
天蚕	-17511
太好	-17512
奉上	-17513
奔掠	-17514
奔波	-17515
她对	-17516
好个	-17517
妨碍	-17518
威慑	-17519
媳妇	-17520
安顿	-17521
寒云	-17522
寒颤	-17523
封闭	-17524
少许	-17525
届时	-17526
山中	-17527
山体	-17528
岂是	-17529
巨无	-17530
巨眼	-17531
差地	-17532
差的	-17533
带头	-17534
干得	-17535
幽光	-17536
异想	-17537
张狂	-17538
归于	-17539
当先	-17540
形的	-17541
彩凤	-17542
得满	-17543
得要	-17544
得越	-17545
微小	-17546
心安	-17547
必报	-17548
忽略	-17549
怒的	-17550
恳求	-17551
惨遭	-17552
惩罚	-17553
成型	-17554
我只	-17555
我已	-17556
我才	-17557
战局	-17558
所望	-17559
才有	-17560
打湿	-17561
扬威	-17562
招了	-17563
挥洒	-17564
换成	-17565
掂量	-17566
插嘴	-17567
握上	-17568
搂住	-17569
搽拭	-17570
撑着	-17571
操心	-17572
擒获	-17573
故作	-17574
散于	-17575
敲了	-17576
斜视	-17577
旋风	-17578
无存	-17579
是该	-17580
有加	-17581
未见	-17582
来做	-17583
林立	-17584
柔声	-17585
栩如	-17586
梦寐	-17587
残印	-17588
毒虫	-17589
毕业	-17590
毕露	-17591
毫发	-17592
毫芒	-17593
气力	-17594
气劲	-17595
气度	-17596
水虎	-17597
永久	-17598
汇入	-17599
没好	-17600
没点	-17601
洒下	-17602
洪流	-17603
流露	-17604
淡白	-17605
滚开	-17606
满的	-17607
潇洒	-17608
潮红	-17609
激荡	-17610
火团	-17611
点的	-17612
燥热	-17613
爽朗	-17614
狡黠	-17615
猎物	-17616
猛涨	-17617
玉贴	-17618
用它	-17619
用最	-17620
由我	-17621
电弧	-17622
畅游	-17623
疯了	-17624
痛感	-17625
的步	-17626
的雷	-17627
皮笑	-17628
盆地	-17629
直线	-17630
相随	-17631
看中	-17632
真空	-17633
眼了	-17634
眼圈	-17635
眼熟	-17636
眼眶	-17637
眼馋	-17638
硬轰	-17639
磐石	-17640
磨合	-17641
神采	-17642
离体	-17643
空的	-17644
竹林	-17645
细心	-17646
绳子	-17647
绷紧	-17648
缩着	-17649
美妙	-17650
羞恼	-17651
羞红	-17652
耀武	-17653
耗尽	-17654
耸立	-17655
耿耿	-17656
胆敢	-17657
胜在	-17658
脖颈	-17659
脸带	-17660
自保	-17661
自我	-17662
芥蒂	-17663
苏媚	-17664
若你	-17665
莲台	-17666
蘑菇	-17667
行列	-17668
表姐	-17669
装盛	-17670
解毒	-17671
讨论	-17672
访问	-17673
试图	-17674
请求	-17675
谁手	-17676
谰言	-17677
负荷	-17678
走动	-17679
赶上	-17680
赶月	-17681
越级	-17682
足了	-17683
跨出	-17684
蹦碎	-17685
躲开	-17686
轰在	-17687
轻吸	-17688
轻挑	-17689
近了	-17690
退却	-17691
透支	-17692
速战	-17693
造就	-17694
那卷	-17695
那番	-17696
钱陌	-17697
铁拳	-17698
镇压	-17699
闭眼	-17700
闲事	-17701
陪伴	-17702
[...]
